, 191366
. 161763
the 134634
and 96681
to 78772
of 73794
a 70529
that 59874
i 53577
in 51605
it 49415
you 45800
is 42169
we 42022
&apos;s 36496
this 32250
so 23552
&quot; 22867
they 21066
was 19121
-- 18926
for 18907
on 18040
are 17874
have 17233
what 17025
but 16796
with 15948
can 15344
? 14217
&apos;t 14070
about 13691
there 13605
at 13133
as 13070
be 12854
all 12421
do 11745
not 11572
one 11457
&apos;re 10920
my 10845
an 10722
people 10668
if 10233
like 10074
from 10068
he 9662
or 9293
now 9229
these 9017
just 8964
our 8505
: 8418
because 8221
when 8212
very 8117
out 7896
me 7829
how 7739
by 7674
know 7404
them 7303
up 7281
going 7184
which 6913
more 6741
here 6728
think 6719
had 6714
see 6622
who 6384
your 6321
us 6316
really 6293
their 6188
get 6178
would 6085
then 6077
were 6048
&apos;ve 5922
world 5766
some 5653
time 5619
&apos;m 5574
has 5368
way 5336
don 5311
actually 5305
into 5192
re@@ 5135
things 4970
where 4914
will 4874
years 4872
go 4823
other 4690
no 4590
well 4537
could 4504
want 4447
make 4315
been 4256
said 4255
right 4150
she 4086
something 4040
-@@ 3944
first 3852
two 3828
than 3802
those 3794
his 3742
look 3739
little 3652
thing 3623
new 3610
got 3596
also 3559
much 3519
back 3453
life 3450
say 3427
; 3386
most 3373
in@@ 3357
over 3345
work 3333
even 3235
only 3235
a@@ 3220
ing 3212
take 3156
kind 3141
s@@ 3133
many 3073
did 3007
need 2977
good 2932
lot 2904
es 2900
around 2868
d@@ 2853
why 2844
down 2817
k@@ 2813
&apos;ll 2769
let 2749
use 2702
different 2692
able 2691
every 2686
through 2665
g@@ 2632
t@@ 2628
her 2615
come 2578
day 2570
ed 2560
e@@ 2554
un@@ 2547
ted 2502
same 2479
its 2476
being 2413
put 2412
en@@ 2410
p@@ 2404
doing 2399
de@@ 2378
o@@ 2338
al 2287
e 2283
three 2279
b@@ 2215
any 2204
called 2170
made 2157
percent 2157
talk 2150
&apos;d 2145
i@@ 2145
t 2141
today 2079
great 2061
s 2056
after 2055
er 2047
o 2041
tell 1995
ro@@ 1988
di@@ 1975
year 1967
human 1960
al@@ 1932
big 1923
fact 1918
another 1914
ate 1913
find 1910
last 1906
own 1877
li@@ 1860
idea 1856
ti@@ 1854
didn 1831
co@@ 1830
before 1826
change 1826
give 1821
m@@ 1821
ar@@ 1805
y 1802
went 1800
should 1797
c@@ 1787
started 1785
thought 1775
lo@@ 1774
ma@@ 1768
u@@ 1765
ri@@ 1764
ated 1756
y@@ 1743
le@@ 1740
end 1737
off 1722
con@@ 1712
story 1707
an@@ 1704
never 1688
better 1679
important 1679
again 1679
course 1674
m 1651
show 1650
system 1641
him 1628
does 1627
problem 1622
start 1619
next 1609
might 1608
each 1602
still 1600
together 1599
used 1598
man 1598
part 1597
bit 1593
place 1592
ago 1590
be@@ 1589
brain 1579
technology 1578
came 1569
ca@@ 1565
thank 1560
pro@@ 1558
st@@ 1550
less 1539
ts 1533
r@@ 1533
se@@ 1530
long 1528
water 1507
&apos; 1500
between 1480
few 1471
st 1468
p 1467
looking 1467
l@@ 1461
too 1459
n@@ 1450
point 1442
ers 1442
mean 1438
ly 1434
children 1433
ting 1428
me@@ 1406
sort 1402
d 1401
maybe 1398
done 1395
found 1374
try 1366
at@@ 1366
it@@ 1365
ha@@ 1362
question 1360
love 1355
im@@ 1354
whole 1352
doesn 1351
school 1347
am 1345
data 1342
example 1330
h@@ 1328
understand 1324
ating 1320
red 1320
may 1319
wanted 1319
f@@ 1318
ds 1311
or@@ 1306
ch@@ 1305
four 1305
g 1304
sh@@ 1302
ever 1299
th@@ 1296
v@@ 1290
real 1288
working 1285
po@@ 1285
si@@ 1284
call 1283
pe@@ 1278
j@@ 1277
live 1273
ta@@ 1270
million 1270
ac@@ 1269
trying 1264
women 1254
w@@ 1253
se 1251
mo@@ 1247
away 1245
bo@@ 1237
ex@@ 1236
light 1233
money 1230
person 1229
power 1229
10 1224
using 1223
everything 1222
always 1218
kids 1218
mi@@ 1209
believe 1208
le 1205
l 1202
feel 1196
la@@ 1194
five 1194
ra@@ 1189
er@@ 1188
design 1185
k 1174
country 1171
space 1169
help 1168
age 1159
thinking 1142
number 1141
create 1139
ne@@ 1134
times 1130
to@@ 1129
took 1127
second 1124
z@@ 1122
ous 1120
information 1120
old 1113
energy 1108
food 1103
means 1100
making 1093
sense 1093
ation 1089
mar@@ 1089
! 1082
getting 1078
on@@ 1078
side 1077
min@@ 1075
future 1075
become 1072
quite 1071
bu@@ 1068
comes 1067
enough 1066
ad@@ 1063
best 1056
small 1055
says 1053
probably 1052
su@@ 1050
car@@ 1049
building 1049
room 1040
ab@@ 1039
without 1027
city 1027
home 1022
play 1019
tion 1014
left 1013
c 1013
interesting 1010
n 1010
tions 1010
stuff 1010
no@@ 1006
social 1005
body 1004
talking 1004
bi@@ 998
el@@ 997
ent 996
science 994
sa@@ 990
ks 988
ding 987
ways 986
coming 983
africa 983
happened 982
vi@@ 976
earth 975
set 966
as@@ 965
ine 965
dollars 964
king 964
b 960
am@@ 960
build 957
pre@@ 952
20 952
led 950
half 950
ask 949
anything 945
ge@@ 942
sp@@ 933
th 930
goes 930
while 930
seen 927
line 923
simple 922
pretty 921
makes 921
ter 920
lives 918
als 914
told 914
com@@ 913
ity 913
ans 912
across 911
case 905
once 904
happen 902
ded 902
such 899
living 897
basically 895
gu@@ 891
ve 891
saw 890
ic 886
men 886
else 885
project 885
book 884
health 881
car 881
imagine 879
yet 879
picture 874
moment 872
hand 871
countries 870
days 869
happens 867
bad 864
having 860
form 858
care 857
okay 854
pri@@ 854
family 853
x 848
te@@ 847
experience 847
hard 845
asked 843
ant 842
move 841
problems 841
global 840
later 839
tive 837
ver@@ 834
ideas 833
high 832
learn 831
dis@@ 831
per@@ 831
sure 830
land 829
ok 829
young 828
nature 827
computer 826
de 825
par@@ 823
ance 818
inside 814
ses 814
business 811
planet 807
everybody 805
six 803
process 801
ability 800
history 798
inter@@ 796
hi@@ 796
reason 795
art 795
saying 794
son 794
states 793
man@@ 793
nothing 792
pa@@ 792
both 791
ment 785
ves 785
les 781
child 781
single 780
whether 779
almost 778
within 778
gra@@ 778
ho@@ 777
ling 776
ps 775
looks 774
sion 774
far 771
cells 771
fi@@ 770
billion 769
oh 768
mind 767
top 766
sc@@ 763
already 763
bring 762
50 762
wrong 761
remember 757
music 757
ol@@ 755
es@@ 755
keep 755
um 753
guy 749
possible 745
pi@@ 745
der 744
true 743
sub@@ 741
cancer 741
op@@ 741
war 740
qu@@ 738
ms 737
heard 736
hope 734
beautiful 732
ke 732
looked 732
so@@ 728
read 728
often 726
ones 725
.@@ 725
matter 724
il@@ 720
open 720
&amp; 720
do@@ 720
ally 716
state 715
gets 715
piece 714
face 714
ni@@ 714
group 712
india 712
3@@ 711
per 710
30 710
ph@@ 709
yes 709
cu@@ 709
built 708
video 707
months 706
works 704
amazing 704
community 703
ur@@ 703
mu@@ 702
answer 702
public 699
stories 697
god 697
someone 696
trans@@ 695
ter@@ 694
taking 694
universe 694
h 693
myself 692
united 691
places 690
instead 687
is@@ 685
words 684
since 684
education 683
fe@@ 682
head 682
until 682
research 682
species 678
isn 677
mon@@ 676
ourselves 676
under 676
tu@@ 675
sometimes 674
ju@@ 673
te 670
control 669
ag@@ 668
tic 667
he@@ 665
turn 665
government 665
ir@@ 663
ies 662
decided 662
tra@@ 661
somebody 660
internet 657
... 655
for@@ 655
couple 653
order 653
level 651
du@@ 651
night 650
language 650
turns 649
rather 648
heart 647
pu@@ 646
house 645
middle 644
happy 643
exactly 643
gs 639
en 637
4@@ 637
wasn 635
kinds 634
though 633
everyone 633
d-@@ 632
stop 630
yeah 628
itself 628
large 628
run 627
x@@ 626
ates 625
mother 625
completely 624
themselves 623
woman 622
animals 621
minutes 621
word 620
students 619
front 618
tri@@ 618
society 617
sound 617
hu@@ 616
became 615
na@@ 615
game 614
tr@@ 613
share 610
job 610
model 609
must 609
100 608
company 607
sts 607
ors 606
happening 605
che@@ 605
name 604
air 602
lin@@ 602
1@@ 602
gi@@ 601
learned 601
ste@@ 600
created 599
ons 599
environment 599
hear 598
study 598
u 598
friends 597
huge 596
ty 596
lots 595
ru@@ 595
oil 594
hours 593
america 593
&#91; 592
&#93; 592
sti@@ 591
news 590
shows 589
ten@@ 589
third 589
war@@ 589
ls 588
res 587
ws 585
century 584
natural 583
won 583
wi@@ 583
sen@@ 581
view 581
disease 580
ice 580
guys 578
along 576
mb@@ 574
worked 573
american 572
wa@@ 571
ry 570
china 569
ful 568
2@@ 568
questions 567
fish 565
self-@@ 565
perhaps 565
figure 565
market 564
particular 564
r 564
ic@@ 564
moving 563
based 562
knew 562
early 562
har@@ 561
ba@@ 559
against 559
others 558
couldn 558
area 556
ary 555
om@@ 553
gave 552
over@@ 551
during 551
ocean 550
learning 550
past 550
size 550
the@@ 549
ck 549
ence 548
w 545
takes 544
ban@@ 543
scale 543
go@@ 541
machine 541
des 540
ins 539
least 539
sh 537
ci@@ 535
cell 535
outside 534
ness 533
finally 531
free 531
systems 530
ge 528
5@@ 528
difference 527
ants 526
15 526
wonderful 526
seven 525
ce@@ 524
sing 524
culture 524
dy 524
ments 524
needs 524
entire 524
taken 523
ction 523
den@@ 520
ator 519
ked 518
cha@@ 517
test 516
da@@ 514
med 513
bio@@ 513
close 513
thousands 510
powerful 505
re 504
parts 503
whatever 503
lation 503
je@@ 503
lu@@ 502
turned 501
can@@ 500
seeing 500
population 500
changed 500
york 498
yourself 498
grow 497
beginning 496
ties 496
given 495
jo@@ 495
up@@ 495
leave 494
behind 494
certain 494
br@@ 494
cost 494
ber@@ 494
ger 494
eight 493
spend 493
ga@@ 492
eyes 492
ck@@ 492
ar 491
image 491
ch 490
ul@@ 490
ce 488
audience 487
parents 486
green 485
stage 484
2 484
sted 484
walk 483
terms 482
force 479
amount 479
interested 479
death 478
bur@@ 478
easy 478
cannot 477
center 477
economic 477
ot@@ 476
media 476
ton 474
table 474
common 472
team 471
full 470
buy 470
rest 469
difficult 468
gone 468
known 468
cro@@ 468
books 467
began 466
local 466
wing 465
8 465
8@@ 465
ma 462
week 461
action 460
ve@@ 459
act 459
hands 458
father 457
friend 456
needed 454
ler 454
fa@@ 454
gh@@ 454
ving 454
sions 454
paper 453
simply 452
longer 452
tw@@ 451
cities 451
field 451
black 450
ved 450
cor@@ 450
deal 449
sin@@ 449
value 449
spent 449
realized 449
sive 449
19@@ 448
either 448
incredible 448
humans 448
gr@@ 448
us@@ 448
key 446
sting 445
bri@@ 444
tried 444
born 443
y-@@ 443
stri@@ 443
ground 443
7@@ 442
national 441
pos@@ 441
20@@ 441
ari@@ 440
cap@@ 440
ev@@ 440
forward 439
step 439
mat@@ 439
phone 439
ings 439
ents 438
hold 438
au@@ 438
growth 438
blo@@ 437
mer@@ 437
surface 437
quickly 436
sitting 435
feet 435
watch 434
companies 434
ges 433
shed 432
complex 431
west 431
ations 430
structure 429
ys 428
under@@ 428
girl 428
lost 428
dna 427
ou@@ 427
wouldn 426
knowledge 426
40 425
growing 425
tation 425
id 425
blue 424
ke@@ 423
pay 423
met 423
ver 422
miles 422
super@@ 422
cal 421
ki@@ 419
die 418
t-@@ 418
em 418
south 417
political 417
poor 416
white 416
cut 414
eat 413
economy 413
el 413
sho@@ 412
weeks 412
felt 412
fun 412
animal 412
3 411
sta@@ 411
ged 411
ming 411
sea 411
behavior 410
fly 410
reality 410
technologies 410
giving 409
ats 408
ster 408
opportunity 408
ters 408
cra@@ 407
brought 406
dra@@ 406
developed 406
changes 406
ss 406
we@@ 405
street 405
telling 404
wrote 403
morning 403
personal 403
ss@@ 402
sha@@ 402
scientists 402
anyone 402
out@@ 402
patients 402
f 400
9 399
/ 399
starting 399
write 398
ent@@ 397
ff@@ 397
ying 397
fast 397
wor@@ 397
program 396
theory 396
pped 395
feeling 395
patient 395
ning 393
areas 393
ap@@ 393
images 393
ser@@ 392
ined 392
gives 391
ging 391
ship 391
nice 391
ches 390
em@@ 389
ously 388
ther@@ 388
understanding 388
cr@@ 387
enti@@ 387
u.s. 387
sun 387
sk@@ 386
climate 386
attention 385
fla@@ 385
tional 385
discovered 385
fo@@ 384
pe 384
low 384
short 383
4 382
fied 382
mp@@ 382
literally 382
sal@@ 381
ia 381
speak 381
ali@@ 381
0s 380
fer@@ 380
z 380
seems 379
film 379
ven@@ 378
5 378
tools 378
cars 378
numbers 378
produce 377
lt 377
non-@@ 377
ran@@ 377
ze 376
board 375
realize 375
average 375
7 375
bar@@ 372
challenge 372
material 372
ger@@ 371
died 371
ders 371
nu@@ 371
playing 371
cy@@ 370
ori@@ 369
fully 369
absolutely 369
cur@@ 369
normal 368
lar@@ 368
access 368
ite 368
micro@@ 368
fin@@ 368
bottom 367
changing 367
pping 367
1 367
running 367
law 367
my@@ 366
physical 366
allow 365
hundreds 365
developing 365
6@@ 365
individual 364
vo@@ 364
alone 364
ble 363
movement 362
uses 362
vision 362
millions 362
creating 362
girls 362
result 362
6 362
shape 362
nobody 361
char@@ 361
deep 361
12 361
modern 361
map 360
e-@@ 360
pen@@ 360
ics 360
forms 359
ker 358
tur@@ 358
and@@ 358
quality 358
off@@ 357
lab 357
cre@@ 357
recently 356
english 356
la 356
dly 356
bs 355
compassion 355
60 354
development 354
ically 354
ed@@ 354
focus 353
product 353
web 352
mental 351
showed 351
9@@ 351
connected 350
stand 350
relationship 350
solution 350
inst@@ 350
wall 350
tion@@ 349
designed 348
bra@@ 348
knows 348
major 347
nor@@ 347
anybody 347
tiny 346
tor@@ 346
seem 345
rate 345
industry 345
obviously 345
innovation 345
security 345
blood 345
type 345
aren 344
position 344
lines 344
ct 343
box 343
kid 343
dark 343
ure 343
cted 342
der@@ 342
support 342
soon 342
chinese 342
talked 342
generation 341
revolution 341
cool 341
issue 341
bed 340
begin 340
incredibly 340
tes 340
clear 340
win@@ 340
save 339
evolution 339
tics 339
ted@@ 339
especially 339
medical 339
available 339
est 338
writing 338
ine@@ 338
haven 337
north 336
ended 336
199@@ 336
don@@ 336
experiment 336
men@@ 336
class 335
becomes 334
online 334
university 334
lived 333
vers 333
acy 333
effect 333
happiness 333
present 332
25 332
beyond 332
perfect 332
ner 331
explain 331
games 331
ators 330
bigger 329
source 329
cli@@ 329
— 329
late 329
please 329
guess 328
squ@@ 328
computers 327
star@@ 326
oper@@ 326
reasons 326
mission 326
cal@@ 325
situation 325
hour 325
fre@@ 325
resources 325
scientific 324
drive 324
impact 324
europe 324
fear 324
asking 324
east 323
sters 323
els 323
solve 322
town 322
network 322
putting 322
0@@ 322
groups 322
device 322
col@@ 321
digital 321
gen@@ 320
shi@@ 320
dead 320
tells 320
office 320
worth 320
ard 319
pur@@ 319
por@@ 319
gar@@ 319
materials 319
ob@@ 319
rules 318
hun@@ 318
schools 318
tan@@ 318
ars 318
ns 317
hor@@ 317
lea@@ 317
meet 317
sur@@ 316
gt 316
explo@@ 316
baby 315
cting 315
0-@@ 315
teach 315
similar 313
pictures 313
voice 313
color 313
cru@@ 312
several 312
cate 312
tical 312
ens 312
solar 312
towards 312
special 312
chance 312
ative 310
mal@@ 310
mor@@ 310
general 310
ently 310
involved 310
teachers 310
fall 310
gener@@ 309
issues 309
activity 309
cri@@ 309
flo@@ 309
cop@@ 309
particularly 308
plant 308
wind 308
il 308
risk 308
door 307
plants 307
suddenly 307
uni@@ 307
road 307
indeed 307
projects 306
deli@@ 306
clu@@ 306
sounds 306
serve 305
onto 305
shing 305
dan@@ 305
zed 305
break 305
mis@@ 304
list 304
ining 304
ching 303
her@@ 303
ned 303
boy 302
evidence 302
basic 302
robot 302
bul@@ 301
18@@ 301
speed 301
hundred 301
certainly 301
truth 301
indi@@ 300
carbon 300
eye 300
fra@@ 300
tro@@ 299
minute 299
ality 299
str@@ 299
nine 299
object 298
listen 298
11 298
message 298
rou@@ 297
strong 297
village 297
clo@@ 296
anyway 296
talks 296
fl@@ 296
uc@@ 296
plan@@ 295
choice 295
wants 295
code 295
stay 294
ssed 294
mine 294
positive 294
hit 294
month 293
kes 293
fu@@ 292
moral 292
examples 291
medi@@ 291
gas 291
coun@@ 291
college 291
lan@@ 291
ping 290
starts 290
wish 290
walking 290
tically 289
et 289
tives 289
showing 288
smart 288
high-@@ 288
skin 287
ready 287
everywhere 287
reach 287
interest 287
ces 287
ths 287
exciting 287
further 287
pattern 287
notice 286
spread 286
dro@@ 286
software 286
fire 286
wait 286
sses 285
mil@@ 284
stra@@ 284
va@@ 284
sto@@ 284
plan 283
develop 283
totally 283
journey 283
page 283
democracy 283
nuclear 283
biggest 282
ben@@ 282
measure 282
potential 282
lose 282
follow 282
row 281
os 281
extraordinary 281
send 281
add 281
sit 281
likely 281
gla@@ 281
mes 280
moved 280
tend 280
named 280
cla@@ 280
period 280
sun@@ 279
mass 279
teacher 279
pla@@ 279
ably 279
student 279
ner@@ 278
cts 278
grew 278
ct@@ 278
ines 278
lies 278
among 278
pl@@ 277
ear@@ 277
bal@@ 277
pick 277
sed 277
fri@@ 277
mp 276
google 276
ism 276
medicine 276
dri@@ 275
eventually 275
store 274
hospital 274
poverty 274
lead 274
arm 274
sy@@ 274
buildings 273
pan@@ 273
version 273
sent 272
points 272
largest 272
cultural 272
extremely 272
except 272
peace 272
comm@@ 271
organization 271
approach 271
visual 271
jobs 271
cause 271
ences 271
international 271
dance 271
dr@@ 270
80 270
usually 270
essentially 270
dom@@ 270
watching 270
success 270
hiv 270
camera 269
standing 269
tor 269
rich 269
fore@@ 269
products 268
san@@ 268
objects 268
ture 268
continue 268
pat@@ 267
older 267
alized 267
series 266
ited 266
trees 266
results 266
david 265
200 265
500 265
logy 265
foot 265
electricity 264
ill 264
pul@@ 263
somewhere 263
fil@@ 263
ely 263
spe@@ 263
tun@@ 263
wed 262
inten@@ 262
brains 262
safe 262
sky 262
wh@@ 261
far@@ 261
tly 261
movie 260
somehow 259
expect 259
mit 259
minds 259
shot 258
ig@@ 258
cho@@ 258
tal@@ 258
creative 258
sex 258
trac@@ 257
stre@@ 257
leaders 257
doctor 257
studies 256
mom 256
wife 256
models 256
sell 256
press 256
impossible 256
larger 256
thousand 256
air@@ 255
tic@@ 255
expensive 255
meaning 255
sorts 255
higher 255
hy@@ 254
screen 254
fac@@ 254
inf@@ 254
shown 254
serious 254
cation 254
crazy 254
zing 254
african 253
appro@@ 253
training 253
allowed 253
touch 252
vari@@ 252
above 251
conditions 251
ched 251
site 251
including 251
written 251
ered 251
finding 251
pieces 251
bas@@ 251
lon@@ 250
beauty 250
ici@@ 250
prin@@ 250
wal@@ 250
therefore 250
killed 250
cing 249
tree 249
reading 249
traditional 249
stars 249
rise 248
income 248
trust 248
excited 248
biology 247
production 247
connect 247
ley 247
architecture 247
individuals 247
bacteria 246
pas@@ 246
tle 246
goal 246
kin@@ 246
supposed 246
taught 246
shes 246
crisis 246
complicated 245
upon 245
dream 245
all@@ 245
att@@ 245
ery 245
truly 245
perspective 245
ligh@@ 244
drugs 244
families 243
18 243
tool 243
famous 243
violence 243
bodies 242
lower 242
ately 242
active 242
han@@ 242
drug 242
favorite 242
seconds 242
tre@@ 242
faster 242
healthy 241
mot@@ 241
fantastic 241
0,000 241
ang@@ 241
kill 241
down@@ 240
treatment 240
zero 240
role 240
fight 240
tru@@ 240
ate@@ 240
communities 239
hand@@ 239
region 239
math 239
ward 239
content 239
alive 238
himself 238
fine 238
head@@ 238
ore 238
anti@@ 237
cking 237
dar@@ 237
neurons 237
response 236
ten 236
worse 236
freedom 236
cases 235
successful 235
ta 235
meant 235
throughout 235
ssing 235
lights 235
range 235
logist 234
genes 234
humanity 234
invented 234
mic 234
although 234
skills 234
dre@@ 234
non@@ 234
bla@@ 234
price 233
bunch 233
irs 233
stic 233
fundamental 233
one-@@ 233
prote@@ 233
hot 233
service 233
sli@@ 232
ea@@ 232
square 232
pain 232
machines 232
cer@@ 231
kept 231
cul@@ 231
bil@@ 231
western 231
physics 231
ja@@ 231
et@@ 230
dad 230
hom@@ 230
earlier 230
central 230
military 230
gotten 230
flu@@ 230
flow 229
clearly 229
strange 229
dd@@ 229
beings 229
policy 229
smaller 228
main 228
fun@@ 228
recognize 228
allows 228
rights 228
ils 228
concept 228
context 228
patterns 227
americans 227
ad 227
familiar 226
waste 226
progress 226
van@@ 226
ish 226
choose 226
engineering 225
ist 225
tively 225
virus 225
connection 224
costs 224
record 224
thanks 224
loved 224
massive 224
consider 224
le-@@ 224
listening 224
wonder 224
anywhere 223
solutions 223
current 223
cen@@ 223
human@@ 223
waiting 223
imag@@ 223
values 223
greater 222
slow 222
chan@@ 222
ran 222
actual 222
plastic 222
hey 222
back@@ 222
treat 222
mer 221
den 221
re-@@ 221
president 221
draw 221
raise 221
ster@@ 221
aid 221
driving 220
ized 220
ages 219
provide 219
bits 219
self 219
museum 219
decisions 219
dangerous 218
ey 218
date 218
rac@@ 218
dollar 218
critical 218
effective 218
wel@@ 218
sum@@ 218
magic 218
surgery 218
ren@@ 218
v 217
related 217
religion 217
tho@@ 217
sustainable 217
protect 216
198@@ 216
none 216
bon@@ 216
remarkable 216
however 216
cou@@ 216
clean 216
eng@@ 216
teaching 216
politics 216
ther 216
yo@@ 216
robots 216
star 216
walked 215
travel 215
two-@@ 215
aware 215
conference 215
intelligence 215
whose 215
fuel 215
tv 215
artist 214
nic@@ 214
exist 214
conversation 214
diversity 214
sla@@ 214
anymore 214
park 213
legs 213
gre@@ 213
fy 213
direction 213
bank 213
becoming 213
train 213
song 213
rule 213
fir@@ 212
see@@ 212
hole 212
docu@@ 212
john 212
actions 212
gh 212
tter@@ 212
forest 212
grand@@ 211
sphere 211
lar 211
meter 211
understood 211
st-@@ 210
5,000 210
scientist 210
glass 210
ah 210
genetic 210
practice 210
immediately 209
bre@@ 209
gl@@ 209
floor 209
slide 209
aging 209
pull 209
specific 209
subject 209
ands 209
inv@@ 209
increase 208
dog 208
greatest 208
flying 208
itation 208
enormous 207
markets 207
shel@@ 207
equ@@ 207
ow@@ 207
stor@@ 207
function 207
kers 207
website 207
decade 206
produced 206
cks 206
environmental 206
san 206
phones 206
ctive 206
speaking 206
are@@ 206
iz@@ 206
ff 206
bru@@ 206
station 205
weight 205
cold 205
continu@@ 205
gri@@ 204
ends 204
thre@@ 204
ory 204
compe@@ 204
fol@@ 204
bro@@ 204
mars 204
creativity 204
ina 203
feed 203
val@@ 203
performance 203
chemical 203
following 203
ur 203
pp@@ 203
sharing 203
forth 203
weren 202
ky 202
photograph 202
da 202
ber 202
forget 202
temperature 202
complete 202
television 202
forces 202
survive 201
ped 201
various 201
private 201
resi@@ 201
track 201
cy 201
wat@@ 201
networks 201
conduc@@ 201
unfortunately 200
ering 200
70 200
useful 200
services 200
sel@@ 200
she@@ 200
hea@@ 200
inspired 200
od@@ 200
boys 200
mul@@ 199
ny 199
summer 199
unique 199
syn@@ 199
meters 199
police 199
lim@@ 199
ites 199
shared 199
ctions 198
types 198
evolved 198
near 198
stick 198
compu@@ 198
ty@@ 198
shor@@ 198
gene 198
ahead 198
ring 198
cover 198
mag@@ 198
doctors 198
pic@@ 198
gers 198
conflict 198
bringing 197
sign 197
original 197
posed 197
meeting 197
possibly 197
recent 197
win 197
grade 197
birds 197
path 197
final 196
net 196
passion 196
sch@@ 196
ads 196
speci@@ 196
helped 196
hol@@ 196
bb@@ 196
pit@@ 196
publi@@ 195
ach 195
wn 195
ue 195
funny 195
societies 195
babies 195
trade 195
ots 194
directly 194
qui@@ 194
institutions 194
mostly 194
gue 194
90 194
wil@@ 194
effects 194
consciousness 194
discover 193
london 193
levels 193
lie 192
experiments 192
ref@@ 192
end@@ 192
moon 192
ball 192
indian 192
na 192
aids 192
ain 191
industrial 191
pass 191
cked 191
obvious 191
heat 191
search 191
pers 191
emb@@ 191
genome 191
career 190
bl@@ 190
scre@@ 190
dness 190
financial 190
below 190
radi@@ 190
wo@@ 190
sorry 190
sat 190
neuro@@ 189
era 189
mobile 189
dr. 189
island 189
clin@@ 189
ide@@ 189
luc@@ 189
chi@@ 189
workers 189
dep@@ 188
bor@@ 188
daughter 188
pt 188
focused 188
poli@@ 188
terrible 187
00 187
challenges 187
id@@ 187
bought 187
faces 187
biological 187
ize 187
16 187
governments 187
pes 187
task 186
emotional 186
birth 186
capacity 186
explore 186
ancient 186
nan@@ 186
afghanistan 186
high@@ 186
iled 185
eating 185
tal 185
assu@@ 185
capital 185
willing 185
decide 185
sion@@ 185
bill 185
ian 185
domin@@ 185
term 185
artists 185
ets 185
gal@@ 185
tations 185
laws 185
fit 184
played 184
multi@@ 184
decision 184
wood 183
twice 183
communication 183
event 183
instance 183
spending 183
turning 183
stro@@ 183
nation 183
causes 183
complexity 182
istic 182
sleep 182
purpose 182
ton@@ 182
paid 182
stone 182
tou@@ 182
carry 181
straight 181
conver@@ 181
worry 181
balance 181
infrastructure 181
ack 181
mit@@ 181
popular 181
dying 181
closer 181
trial 181
pressure 181
home@@ 180
surprising 180
character 180
push 180
slightly 180
chris 180
sm 180
ced 180
molecules 179
urban 179
af@@ 179
dence 179
repe@@ 179
decades 179
diseases 179
respon@@ 179
vie@@ 179
dent 179
gro@@ 178
vering 178
cally 178
devices 178
mini@@ 178
tures 178
mel@@ 178
-year-old 178
broken 177
calls 177
address 177
ll 177
secret 177
tele@@ 177
charge 177
drop 176
cycle 176
teen@@ 176
$ 176
quick 176
ly@@ 176
yed 176
memory 176
300 176
ok@@ 176
prof@@ 176
tar@@ 176
ess 175
pal@@ 175
significant 175
sugge@@ 175
sil@@ 175
published 175
est@@ 175
trouble 175
ant@@ 175
analy@@ 175
extra 175
tremendous 174
s-@@ 174
degrees 174
supply 174
q@@ 174
eri@@ 174
coffee 174
designers 174
california 173
ops 173
acts 173
hon@@ 173
citizens 173
sis 173
answers 173
scen@@ 173
dete@@ 173
10,000 173
predi@@ 173
app@@ 173
passed 172
plu@@ 172
check 172
race 172
sol@@ 172
regi@@ 172
pol@@ 172
worst 172
party 172
apart 172
sides 172
stu@@ 172
atmosphere 172
sm@@ 172
blind 172
yer 172
lets 171
shift 171
justice 171
ble@@ 171
etc 171
ners 171
bot@@ 171
radio 171
creates 171
rooms 171
low-@@ 171
cated 171
notion 170
oun@@ 170
collabor@@ 170
communicate 170
differences 170
rev@@ 170
mountain 170
improve 170
sia 170
suppor@@ 170
ef 170
structures 170
terri@@ 169
hearing 169
foundation 169
tim@@ 169
broad@@ 169
spo@@ 169
2,000 169
noticed 169
pon@@ 169
oxygen 169
formed 169
roo@@ 169
bom@@ 169
ambi@@ 168
responsibility 168
vic@@ 168
accep@@ 168
phenomenon 168
richard 168
smo@@ 168
a-@@ 168
rock 168
and-@@ 168
edge 168
appe@@ 168
load 167
organisms 167
197@@ 167
seemed 167
1,000 167
ial 167
fying 167
nations 167
preci@@ 167
program@@ 167
pra@@ 167
lling 167
sand 167
infe@@ 166
fix 166
foun@@ 166
&apos;@@ 166
iling 166
impro@@ 166
tors 166
dy@@ 166
new@@ 166
helping 166
geo@@ 166
colleagues 166
sle@@ 166
hi 166
eco@@ 165
logical 165
graph 165
initi@@ 165
work@@ 165
possibility 165
feels 165
corner 165
ential 165
text 165
electric 165
studying 165
farmers 165
religious 165
wea@@ 165
standard 165
reli@@ 165
easily 165
fer 165
dan 165
repli@@ 165
link 164
nearly 164
necessarily 164
basis 164
condition 164
programs 164
top@@ 164
disc@@ 164
lic 164
particles 164
achieve 164
cel@@ 164
planets 164
sou@@ 164
tissue 164
to-@@ 163
break@@ 163
stration 163
eth@@ 163
window 163
organizations 163
year-old 163
sac@@ 163
painting 163
psycho@@ 163
lou@@ 162
cles 162
profit 162
return 162
landscape 162
flight 162
ray 162
figured 162
ay 162
total 162
efficient 162
14 162
by@@ 162
pounds 162
hair 162
tured 161
iraq 161
rain 161
knowing 161
int 161
reduce 161
duc@@ 161
cies 161
giant 161
bird 161
mark 161
imagination 161
boat 160
finished 160
highly 160
gly 160
lucky 160
ink 160
core 160
agree 160
bridge 160
mc@@ 160
,@@ 160
kil@@ 160
asia 160
civil 160
mber 159
tail 159
distin@@ 159
relationships 159
fair 159
reflec@@ 159
stopped 159
streets 159
flu 159
definition 159
necessary 159
ace 159
choices 159
ssi@@ 158
benefit 158
eu@@ 158
opportunities 158
contribu@@ 158
engine 158
interact 158
cent 158
ra 158
fication 158
ath@@ 158
leads 157
tex@@ 157
tech 157
ase 157
hal@@ 157
prison 157
leading 157
differently 157
yellow 157
argument 157
del@@ 157
missing 157
pose 157
1.@@ 157
despite 157
hear@@ 157
professor 156
aches 156
saving 156
respect 156
ultimately 156
accoun@@ 156
mani@@ 156
designer 156
obser@@ 156
prize 156
brings 156
members 156
parent 156
organic 156
mur@@ 156
flies 156
bone 156
sites 155
effort 155
moves 155
ful@@ 155
ach@@ 155
moments 155
engage 155
gate 155
mps 155
ases 155
throw 155
tain 155
deci@@ 155
attack 155
cir@@ 155
tom 154
join 154
mathematics 154
foreign 154
comfortable 154
ories 154
adop@@ 154
tin@@ 154
print 154
oc@@ 154
vel@@ 154
swe@@ 154
noise 154
mr. 154
visit 154
comp@@ 154
discovery 153
mid@@ 153
reve@@ 153
boo@@ 153
forever 153
inci@@ 153
,000 153
fairly 153
lesson 153
tivity 153
benefits 153
agriculture 153
bread 153
emotions 153
person@@ 153
coast 152
gene@@ 152
helps 152
land@@ 152
ior 152
held 152
ple@@ 152
nee@@ 152
raised 152
tch 152
brilliant 152
iran 152
ney 152
logists 151
ric 151
suffering 151
extreme 151
13 151
antly 151
engineers 151
on-@@ 151
well-@@ 150
lled 150
puts 150
nur@@ 150
calcul@@ 150
river 150
fold 150
exp@@ 150
ir 150
shares 150
apply 150
peri@@ 150
typical 150
slowly 150
ite@@ 150
afraid 150
conscious 150
wisdom 150
ha 150
female 149
japan 149
rela@@ 149
gradu@@ 149
ess@@ 149
counter@@ 149
bees 149
filled 149
ancy 149
responsible 149
billions 149
adap@@ 149
afford 149
matters 149
sian 149
engineer 149
adults 149
lations 149
sick 149
creatures 149
carto@@ 149
stem 149
fashion 149
mothers 148
ries 148
enter@@ 148
facebook 148
quote 148
degree 148
note 148
liber@@ 148
elements 148
fighting 148
fields 148
gor@@ 148
graphic 148
ep@@ 148
mouse 148
card 148
motion 148
negative 148
alize 148
report 147
thy 147
competition 147
soci@@ 147
capable 147
compar@@ 147
begins 147
bel@@ 147
matic 147
fascinating 147
ods 147
dun@@ 147
walls 147
graphy 147
1,@@ 147
french 147
24 146
inve@@ 146
sector 146
distance 146
experiences 146
cheap 146
influence 146
titude 146
easier 146
hopefully 146
vast 146
stream 146
virtual 146
caught 146
ale 146
part@@ 146
pun@@ 146
wer 145
gun 145
respond 145
-up 145
legal 145
leaving 145
196@@ 145
identity 145
loss 145
wild 145
holding 145
gon@@ 145
ol 145
crime 145
profound 145
traffic 145
ham@@ 145
statistics 145
nar@@ 145
mom@@ 144
meat 144
shop 144
pac@@ 144
mal 144
din@@ 144
block 144
promise 144
electro@@ 144
ath 144
british 144
dig@@ 144
mented 144
auth@@ 144
base 143
sold 143
heads 143
consi@@ 143
power@@ 143
brother 143
wide 143
enjoy 143
sequ@@ 143
powered 143
colors 143
simul@@ 143
gall@@ 143
suit 143
shouldn 142
offer 142
breast 142
describe 142
studied 142
pres@@ 142
histor@@ 142
investment 142
iting 142
magazine 142
lack 142
speech 142
ie 142
pr@@ 142
ists 142
ought 142
otherwise 142
desert 142
importantly 142
trained 142
paint 142
doub@@ 142
gos 142
invest 142
j 141
ven 141
dreams 141
argu@@ 141
insects 141
normally 141
arms 141
ne 141
campaign 141
ka 141
fill 140
ghts 140
tionally 140
consumption 140
ele@@ 140
400 140
itable 140
sudden 140
aling 140
galaxy 140
fellow 140
principles 140
interpre@@ 140
therapy 140
sister 140
jud@@ 140
invisible 140
damage 139
factory 139
wave 139
ca 139
catch 139
placed 139
addi@@ 139
economics 139
milli@@ 139
molecule 139
steps 139
everyday 139
wear 139
seriously 139
beat 139
in-@@ 138
civilization 138
professional 138
entirely 138
ai@@ 138
operating 138
cam@@ 138
languages 138
intelligent 138
dry 138
audi@@ 138
opposite 138
transform 138
blu@@ 138
rid 138
chair 138
spring 137
corre@@ 137
spirit 137
sequence 137
fron@@ 137
tiv@@ 137
17 137
husband 137
labor 137
limited 137
aw@@ 137
represen@@ 137
depression 137
mouth 137
ero@@ 137
circle 137
sus 137
belief 137
sna@@ 137
events 137
creation 137
sors 137
warming 137
mathema@@ 137
th-@@ 137
protein 137
airplane 137
ception 137
viruses 136
conta@@ 136
ka@@ 136
ank 136
keeping 136
plus 136
argue 136
stuck 136
concerned 136
deliver 136
roll 136
photo 136
article 136
omy 136
lands 136
desire 136
visu@@ 136
principle 136
bab@@ 136
pros@@ 136
ft 135
theater 135
believed 135
background 135
acceler@@ 135
managed 135
commercial 135
deeply 135
amp 135
concer@@ 135
spon@@ 135
three-@@ 135
designing 135
co2 135
cations 135
dynamic 135
yesterday 135
male 135
toward 135
experim@@ 135
wow 135
gen 135
bin@@ 135
oceans 134
ko@@ 134
opened 134
tom@@ 134
med@@ 134
whenever 134
cep@@ 134
institute 134
followed 134
childhood 134
ill@@ 134
fail@@ 134
intervie@@ 134
bit@@ 134
hate 134
majority 134
predict 134
ology 134
plane 134
failed 134
laugh@@ 134
ec@@ 134
increasingly 134
olu@@ 134
temp@@ 134
evil 134
kid@@ 134
stan@@ 133
sight 133
tradi@@ 133
driven 133
surprise 133
paul 133
washington 133
ong 133
bly 133
generate 133
enter 133
los 133
vir@@ 133
ending 133
ei@@ 133
thinks 133
pages 133
spaces 133
physici@@ 133
opening 133
versus 133
ids 133
israel 133
demo@@ 133
tomorrow 133
bes 133
acting 132
whom 132
perfectly 132
electrical 132
wealth 132
blin@@ 132
constantly 132
separate 132
according 132
scop@@ 132
wearing 132
charles 132
ket 132
bac@@ 131
drawing 131
cognitive 131
due 131
brand 131
farm 131
eli@@ 131
mexico 131
soil 131
mechan@@ 131
church 131
tran@@ 131
heli@@ 131
prevent 131
failure 131
apple 131
survival 131
fted 131
fourth 131
finger 131
currently 130
compare 130
graduate 130
harder 130
spir@@ 130
unless 130
res@@ 130
independent 130
port 130
fli@@ 130
define 130
shu@@ 130
stop@@ 130
photos 130
match 130
transl@@ 130
dimensions 130
secre@@ 130
ken@@ 130
tan 130
corruption 130
letter 129
producing 129
actor 129
metaphor 129
slo@@ 129
py 129
classroom 129
bar 129
spot 129
compli@@ 129
arts 129
jump 129
ption 129
hyper@@ 129
bran@@ 129
gging 129
thro@@ 129
ordinary 129
adv@@ 129
kno@@ 129
o-@@ 129
covered 128
organized 128
random 128
legi@@ 128
universal 128
tumor 128
experts 128
vege@@ 128
ek 128
50,000 128
voices 128
count 128
angle 128
galaxies 128
interven@@ 128
gn@@ 128
affect 128
suppose 127
gged 127
sor@@ 127
leaves 127
rain@@ 127
rural 127
affe@@ 127
leadership 127
some@@ 127
caused 127
exten@@ 127
invited 127
weird 127
tough 127
equivalent 127
exists 127
treated 127
gain 127
ii 127
worried 127
poin@@ 127
alism 127
investi@@ 127
ld 127
continent 126
artificial 126
email 126
dinner 126
paying 126
our@@ 126
proje@@ 126
distribution 126
signals 126
shapes 126
bing 126
sy 126
compared 126
diagno@@ 126
signal 126
stun@@ 126
debate 126
ron@@ 126
japanese 125
thetic 125
hasn 125
direct 125
hur@@ 125
hidden 125
negoti@@ 125
hen@@ 125
layer 125
cortex 125
holes 125
einstein 125
planning 125
liter@@ 125
businesses 125
weapons 125
european 124
liz@@ 124
chemicals 124
ak 124
valley 124
vehicle 124
ables 124
construction 124
sexual 124
shoes 124
hell 124
represent 124
cular 124
copy 124
alization 124
gic 124
threat 124
thesis 124
appear 124
mate 124
seat 124
muscle 124
neighborhood 124
waves 123
cent@@ 123
stru@@ 123
expression 123
rational 123
names 123
strategy 123
gin@@ 123
ge-@@ 123
aries 123
grown 123
sum 123
mortality 123
described 123
scan@@ 123
than@@ 123
advantage 123
lunch 123
jun@@ 123
insi@@ 123
camp 123
lady 123
bear 123
cloud 123
tens 123
fran@@ 123
highest 123
facts 123
mentioned 123
zes 123
tter 123
malaria 123
proud 122
weather 122
20th 122
collective 122
generations 122
forming 122
vote 122
gy 122
ese 122
pot@@ 122
chemistry 122
dinosaurs 122
def@@ 122
character@@ 122
feelings 122
houses 122
occu@@ 122
closed 121
ration 121
wake 121
percei@@ 121
spi@@ 121
cure 121
proce@@ 121
dies 121
double 121
worldwide 121
discipl@@ 121
hypo@@ 121
wan@@ 121
britain 121
real@@ 121
violent 121
interaction 121
bet 121
pain@@ 120
heavy 120
minister 120
tioning 120
emerging 120
sky@@ 120
ound 120
losing 120
illu@@ 120
launched 120
garden 120
imp@@ 120
influ@@ 120
survi@@ 120
multiple 120
para@@ 120
ances 120
forced 120
clinical 120
pin@@ 119
chain 119
fat 119
michael 119
canada 119
jac@@ 119
technical 119
dering 119
associated 119
read@@ 119
mac@@ 119
intellectual 119
45 119
izing 119
pressed 119
ham 119
exc@@ 119
player 119
england 119
ams 119
til@@ 119
drink 118
mulation 118
molecular 118
fell 118
leg 118
practical 118
fting 118
grandmother 118
army 118
abilities 118
conf@@ 118
married 118
interface 118
democratic 118
gold 118
details 118
lab@@ 118
library 118
thri@@ 118
collect 118
ination 118
ental 118
coral 118
rot@@ 118
killing 118
consequences 118
hall 118
spectrum 118
smell 117
awful 117
department 117
northern 117
mers 117
setting 117
surprised 117
avoid 117
identi@@ 117
emp@@ 117
mile 117
grand 117
who@@ 117
wit@@ 117
equal 117
enjo@@ 117
roughly 117
detail 117
location 117
remote 117
movies 117
resource 117
di 117
colum@@ 117
steel 117
boun@@ 117
pre-@@ 117
disaster 117
honest 117
letters 117
equipment 117
bright 117
emotion 117
teeth 117
homes 117
trip 117
trials 117
photo@@ 117
va 117
selling 116
studio 116
contact 116
coal 116
inner 116
realiz@@ 116
importance 116
brown 116
smar@@ 116
joy 116
al-@@ 116
100,000 116
set@@ 116
ement 116
autom@@ 116
pleasure 116
0 116
cultures 116
leader 116
vit@@ 116
35 116
occa@@ 116
users 116
sw@@ 115
graph@@ 115
cating 115
transformation 115
management 115
soldiers 115
accident 115
lessons 115
vation 115
rates 115
budget 115
dealing 115
sad 115
van 115
bat@@ 115
tons 115
sty 115
ills 115
ep 115
controlled 115
motiv@@ 115
gram 115
cat@@ 115
10@@ 115
prove 115
section 115
feedback 115
kenya 115
spoke 115
affected 115
vot@@ 115
play@@ 115
ans@@ 115
regular 114
ana 114
hadn 114
calling 114
communi@@ 114
swit@@ 114
bus 114
surr@@ 114
essential 114
zz@@ 114
whe@@ 114
jer@@ 114
kilometers 114
colon@@ 114
possibilities 114
reaction 114
stood 114
3,000 114
wards 114
george 114
james 114
ban 114
nigeria 114
absolute 114
warm 114
ctors 113
17@@ 113
stress 113
productive 113
er-@@ 113
oth 113
researchers 113
partner 113
ces@@ 113
phi@@ 113
property 113
long-term 113
plate 113
underneath 113
account 113
whereas 113
effectively 113
finish 113
empty 113
australia 113
post-@@ 113
fossil 113
ony 113
chicken 113
open-@@ 113
shall 113
thoughts 113
sco@@ 113
adult 112
horse 112
amaz@@ 112
aggre@@ 112
fts 112
ier 112
val 112
round 112
arrived 112
struc@@ 112
encoura@@ 112
nervous 112
specifically 112
log@@ 112
suggest 112
ards 112
ll@@ 112
prime 112
ased 112
dest@@ 112
metal 112
cards 112
analysis 112
3d 112
beach 111
150 111
entreprene@@ 111
honor 111
daily 111
wire 111
mathematical 111
sig@@ 111
radical 111
stance 111
picked 111
shar@@ 111
ships 111
mountains 111
pole 111
sand@@ 111
sub-@@ 111
invention 111
reci@@ 111
variety 111
gravity 111
roots 111
transition 111
saved 111
fle@@ 111
cross 111
addition 111
curious 111
measu@@ 111
sharks 111
magnetic 111
sugar 111
experienced 110
connections 110
breath 110
clock 110
chron@@ 110
fund 110
status 110
de-@@ 110
demand 110
miss 110
valuable 110
hero 110
existence 110
advanced 110
thomas 110
sources 110
ening 110
express 110
suggests 110
scene 110
- 110
law@@ 110
gift 110
considered 110
fewer 110
mix 110
union 110
mony 110
portra@@ 110
ith 110
organs 110
ization 110
99 110
fail 110
que 110
stea@@ 110
ison 110
photograph@@ 109
buying 109
diet 109
conne@@ 109
agers 109
sa 109
stable 109
folks 109
relatively 109
goals 109
respe@@ 109
thin@@ 109
igh@@ 109
attrac@@ 109
mon 109
emer@@ 109
techniques 109
evolutionary 109
protection 109
relevant 109
characters 109
operate 109
tt@@ 109
architect 109
cour@@ 109
ai 109
marine 108
ours 108
fab@@ 108
lifetime 108
particip@@ 108
net@@ 108
sets 108
require 108
xi@@ 108
newspaper 108
admini@@ 108
employees 108
wee@@ 108
master 108
tent 108
alternative 108
platform 108
dots 108
scot@@ 108
radiation 108
method 108
bee@@ 108
2008 108
typically 108
ultra@@ 108
target 108
convince 108
players 108
logic 108
increasing 108
celebr@@ 108
fresh 108
via 108
photographs 108
silk 108
sar@@ 107
identify 107
perfor@@ 107
co 107
tual 107
encing 107
ken 107
ze@@ 107
prepared 107
sett@@ 107
bush 107
efficiency 107
testing 107
descri@@ 107
defined 107
lying 107
reason@@ 107
ium 107
lec@@ 107
quest 107
ini@@ 107
explains 107
perception 107
onic 107
zo@@ 107
rin@@ 107
axis 107
modi@@ 107
flat 107
swim 107
epidemic 107
awareness 107
tradition 106
winter 106
liked 106
green@@ 106
represents 106
illness 106
ols 106
nasa 106
itting 106
solved 106
introduced 106
motor 106
wars 106
wra@@ 106
bang 106
factor 106
zone 106
195@@ 106
credit 106
previous 106
darwin 106
sym@@ 106
sentence 106
cast 106
cs 106
sca@@ 106
restaurant 106
diplom@@ 106
ened 106
reward 106
bility 106
theme 105
brea@@ 105
breaking 105
clean@@ 105
ecosystem 105
pacific 105
anti-@@ 105
ingly 105
safety 105
roads 105
replace 105
ounds 105
facing 105
regre@@ 105
kitchen 105
notes 105
alists 105
primary 105
ily 105
associ@@ 105
christi@@ 105
vulnerable 105
satis@@ 105
bia 105
sau@@ 105
za 105
aled 105
ush 105
mentary 105
gan@@ 105
600 105
free@@ 105
aten 105
wers 105
videos 105
personally 105
defin@@ 105
mped 105
brothers 105
fishing 105
battery 105
director 104
writer 104
deeper 104
integr@@ 104
definitely 104
dea@@ 104
accept 104
arri@@ 104
ladies 104
bloo@@ 104
dered 104
atory 104
eral 104
ational 104
environments 104
stock 104
ama@@ 104
dru@@ 104
prison@@ 104
risks 104
marketing 104
ser 104
twitter 104
planes 104
properties 104
hot@@ 104
hop@@ 103
struggle 103
expan@@ 103
bun@@ 103
driver 103
marke@@ 103
nor 103
instrument 103
convinced 103
fes@@ 103
diver@@ 103
marriage 103
lat@@ 103
tests 103
unlike 103
appropriate 103
patent 103
gap 103
switch 103
trick 103
strength 103
senses 103
makers 103
mention 103
rel@@ 103
circu@@ 103
exchange 103
thu@@ 103
mic@@ 103
dogs 103
proteins 103
processes 103
confidence 103
um@@ 103
gment 103
behaviors 103
tries 103
carrying 102
paraly@@ 102
lock 102
wikipedia 102
visible 102
im 102
requires 102
sending 102
harvard 102
une@@ 102
naturally 102
cl@@ 102
centers 102
preven@@ 102
drew 102
laptop 102
stupid 102
rare 102
wired 102
collapse 102
battle 102
germany 102
generally 102
gest 102
wr@@ 102
cere@@ 102
assi@@ 102
nal 102
rus@@ 102
00,000 102
lo 102
eastern 102
portion 102
mistake 102
windows 102
alu@@ 102
maps 102
wondering 102
blocks 102
mates 102
cooking 102
aring 102
scri@@ 102
roof 102
ented 102
emissions 102
crash 102
politicians 102
ris@@ 102
phan@@ 102
invent 101
introduce 101
alities 101
goods 101
unusual 101
applied 101
components 101
tles 101
click 101
assemb@@ 101
bottle 101
dle 101
supp@@ 101
ph 101
faith 101
lay 101
berg 101
son@@ 101
received 101
biom@@ 101
hard@@ 101
ggling 101
computing 101
psychology 101
style 101
gy@@ 101
watched 101
analo@@ 101
expected 101
lin 101
wings 101
gation 101
reven@@ 101
slu@@ 101
comb@@ 101
tem@@ 101
memor@@ 101
penguins 101
broke 100
intri@@ 100
gam@@ 100
former 100
stimul@@ 100
remin@@ 100
poetry 100
gical 100
acqui@@ 100
served 100
liquid 100
inev@@ 100
buil@@ 100
logically 100
pulled 100
carefully 100
aged 100
bubble 100
u.k. 100
vered 100
hits 100
wise 100
burning 100
rab@@ 100
frame 100
wine 100
climb@@ 100
stry 100
trillion 100
ckets 100
ssion 100
shark 100
ancestors 100
tables 100
red@@ 100
sensitive 100
sor 100
mam@@ 100
nutri@@ 99
pack@@ 99
the-@@ 99
string 99
skele@@ 99
collaboration 99
scho@@ 99
verage 99
harve@@ 99
added 99
manage 99
rely 99
frequ@@ 99
grid 99
consumer 99
percentage 99
discussion 99
leg@@ 99
dish 99
sible 99
exploration 99
cont@@ 99
runs 99
electr@@ 99
consu@@ 99
grain 99
member 99
ani@@ 99
musical 99
infected 99
stics 99
exercise 99
novel 99
han 99
unit 99
passionate 99
atoms 99
males 98
ride 98
advan@@ 98
francisco 98
healthcare 98
hospitals 98
alls 98
gay 98
horiz@@ 98
que@@ 98
cutting 98
path@@ 98
mirror 98
robert 98
arily 98
tile 98
mistakes 98
rever@@ 98
claim 98
sci@@ 98
fro@@ 98
empathy 98
laboratory 98
interests 98
brazil 98
destruction 98
ot 98
steve 98
arab 98
pollution 97
jam@@ 97
protected 97
hoping 97
-like 97
collec@@ 97
crow@@ 97
user 97
situations 97
75 97
pest 97
cin@@ 97
pil@@ 97
neighbors 97
deser@@ 97
burn 97
spect 97
display 97
temporary 97
reti@@ 97
hil@@ 97
satellite 97
devi@@ 97
estimate 97
sophisticated 97
depends 97
gence 97
solving 97
obje@@ 97
comple@@ 97
capture 97
colli@@ 97
lit@@ 97
rema@@ 97
house@@ 97
dropped 97
mas@@ 97
gulf 97
comfort 97
amounts 96
bay 96
milk 96
ear 96
ick 96
three-dimensional 96
peak 96
phenomen@@ 96
southern 96
pay@@ 96
dents 96
opinion 96
encourage 96
coordin@@ 96
susta@@ 96
maker 96
medium 96
closely 96
flowers 96
microbes 96
surgeon 96
cers 96
crowd 96
islam 96
explanation 96
piano 96
embarra@@ 96
activ@@ 96
ager 96
dic@@ 96
innovative 96
hotel 96
pop 96
bo 96
signed 96
entrepreneurs 96
ander@@ 96
falls 95
sees 95
ske@@ 95
concentr@@ 95
insight 95
inspiration 95
oned 95
reached 95
recorded 95
traveling 95
custom@@ 95
overwhel@@ 95
bag 95
youtube 95
combine 95
pack 95
alter@@ 95
curr@@ 95
mush@@ 95
combination 95
movements 95
ry@@ 95
quanti@@ 95
tracking 95
error 95
ba 95
element 95
story@@ 95
vac@@ 95
sha 95
absor@@ 94
hurt 94
predat@@ 94
journ@@ 94
chest 94
quiet 94
exam@@ 94
inven@@ 94
scar@@ 94
migr@@ 94
activities 94
15@@ 94
2.@@ 94
consist@@ 94
gli@@ 94
relative 94
performing 94
pha@@ 94
reduc@@ 94
include 94
meaningful 94
instruc@@ 94
philosop@@ 94
jan@@ 94
presentation 94
electronic 94
xim@@ 94
eggs 94
selec@@ 94
forests 94
factors 94
thir@@ 94
stran@@ 94
ind@@ 94
accurate 94
pli@@ 94
2007 94
presence 94
2000 94
progre@@ 94
pet 94
shoot 94
sir 94
oring 94
smile 94
singing 94
ultimate 94
ears 93
mble 93
barri@@ 93
transportation 93
reco@@ 93
execu@@ 93
continued 93
activi@@ 93
dest 93
sunlight 93
inte@@ 93
walks 93
key@@ 93
views 93
aspect 93
framework 93
manufac@@ 93
sample 93
suc@@ 93
treating 93
organ 93
acade@@ 93
black@@ 93
nership 93
taste 93
linked 93
insul@@ 93
heroes 93
asks 93
apo@@ 93
bi 93
occurred 93
quantum 93
pointed 92
dramatic 92
mirac@@ 92
ss-@@ 92
author 92
technological 92
gun@@ 92
manufacturing 92
goo@@ 92
topic 92
educational 92
abled 92
tested 92
cat 92
blog 92
falling 92
religions 92
ical 92
wherever 92
cameras 92
collection 92
holds 92
conclusion 92
hydrogen 92
joke 92
lor@@ 92
steri@@ 92
inse@@ 92
tape 92
signific@@ 92
shaped 92
birthday 92
syste@@ 92
ment@@ 92
empi@@ 92
competi@@ 92
conventional 92
file 92
shame 92
cable 92
simil@@ 92
poly@@ 92
plans 92
ford 92
tie 92
operation 91
toler@@ 91
fr@@ 91
gol@@ 91
coo@@ 91
vin@@ 91
fundamentally 91
lian 91
web@@ 91
correct 91
bones 91
liver 91
u.n. 91
c. 91
release 91
tonight 91
gdp 91
believ@@ 91
economists 91
alist 91
pation 91
post 91
institution 91
band 91
six@@ 91
existing 91
teams 91
tar 91
stion 91
fortunate 91
afternoon 91
ror 91
circumstances 91
enced 91
stronger 91
algorithms 91
vaccine 91
increased 90
gg@@ 90
xed 90
shake 90
globe 90
profes@@ 90
conserva@@ 90
perform 90
invol@@ 90
water@@ 90
attempt 90
mix@@ 90
opti@@ 90
rich@@ 90
defense 90
touched 90
disa@@ 90
survey 90
aming 90
eria 90
drives 90
cents 90
abstract 90
tac@@ 90
pollen 90
eg@@ 90
port@@ 90
stand@@ 90
repor@@ 90
ami 90
fake 90
seven@@ 90
outcome 90
architects 90
renew@@ 90
ever@@ 90
reg@@ 90
ku@@ 90
comman@@ 90
lywood 90
bow 90
mism 90
feeding 89
ctly 89
flexi@@ 89
split 89
ose 89
partners 89
rapidly 89
curve 89
pression 89
sons 89
200@@ 89
depen@@ 89
gentlemen 89
remind 89
ied 89
detect 89
thin 89
boston 89
funding 89
expand 89
paradigm 89
arab@@ 89
astero@@ 89
decre@@ 89
expert 89
lun@@ 89
signs 89
fe 89
creature 89
rocket 89
origin@@ 89
ing@@ 89
compas@@ 89
swimming 89
finance 89
pa 89
golden 89
behavioral 89
decline 89
ware 89
technique 89
pakistan 89
five-@@ 89
court 89
dam@@ 89
tube 89
pocket 88
adi@@ 88
restri@@ 88
launch 88
enture 88
21 88
physically 88
combined 88
exact 88
dia@@ 88
parking 88
nat@@ 88
bert 88
ous@@ 88
boxes 88
volume 88
literature 88
ore@@ 88
clouds 88
insur@@ 88
illustr@@ 88
fru@@ 88
2010 88
advice 88
measured 88
asse@@ 88
hall@@ 88
mad 88
lic@@ 88
cky 88
regul@@ 88
som@@ 88
defe@@ 88
stant 88
aching 88
odd 88
bin 88
gover@@ 88
proto@@ 87
remain 87
internal 87
fel@@ 87
mode@@ 87
sche@@ 87
discus@@ 87
determine 87
vol@@ 87
sweet 87
ener@@ 87
well-being 87
minate 87
features 87
corporate 87
authority 87
congress 87
election 87
constitu@@ 87
agre@@ 87
sation 87
instruments 87
wondered 87
tee 87
sup@@ 87
skill 87
connecting 87
whist@@ 87
regions 87
sustainability 87
evening 87
metho@@ 87
printing 87
staff 87
poses 87
bage 87
ema@@ 87
bomb 87
acted 87
underwater 87
lau@@ 87
philosophy 87
ull 87
rup@@ 86
lighting 86
engaged 86
ki 86
challenging 86
vis@@ 86
dary 86
mod@@ 86
applications 86
designs 86
ints 86
eness 86
participate 86
dancing 86
keeps 86
inher@@ 86
forma@@ 86
ey@@ 86
ples 86
craft 86
alle@@ 86
records 86
ple 86
dge 86
mechanical 86
narrative 86
doubt 86
options 86
option 86
younger 86
monkeys 86
john@@ 86
unclear 86
reference 86
threat@@ 86
polio 86
21st 86
clip 85
tious 85
subjects 85
establi@@ 85
climb 85
chicago 85
demonstr@@ 85
embrace 85
help@@ 85
lap@@ 85
september 85
fed 85
horrible 85
bike 85
mystery 85
flew 85
.com 85
ult 85
epi@@ 85
queen 85
fuels 85
figures 85
deaths 85
esthe@@ 85
haiti 85
length 85
selection 85
reverse 85
fingers 85
songs 85
german 85
transformed 85
largely 85
success@@ 85
me-@@ 85
16@@ 85
sahar@@ 85
sey 85
worlds 85
islands 85
eding 85
poem 85
enable 85
muslim 85
tea 85
accu@@ 84
sty@@ 84
causing 84
ctor 84
atten@@ 84
channel 84
yl@@ 84
latest 84
cke@@ 84
stands 84
inspiring 84
expec@@ 84
admit 84
boring 84
ounding 84
raw 84
generated 84
nes@@ 84
messages 84
upper 84
hydro@@ 84
vor 84
gent 84
classic 84
budd@@ 84
unknown 84
aci@@ 84
unexpected 84
atom@@ 84
concrete 84
bacter@@ 84
obsessed 84
nose 84
mean@@ 84
simplicity 84
entertainment 84
12@@ 84
dense 84
ee@@ 84
expon@@ 84
ternal 84
remains 84
gray 84
ef@@ 84
answer@@ 84
nest 84
mid-@@ 84
housing 84
villages 84
component 84
zero-@@ 84
connec@@ 84
genom@@ 84
plac@@ 84
orities 84
ogen@@ 84
busy 83
navi@@ 83
recyc@@ 83
bron@@ 83
yi@@ 83
60s 83
recei@@ 83
ared 83
common@@ 83
gration 83
ya 83
susp@@ 83
xes 83
70s 83
disgu@@ 83
clothes 83
jour@@ 83
lish 83
egypt 83
films 83
kar@@ 83
ax@@ 83
directions 83
surve@@ 83
soul 83
come@@ 83
wireless 83
invent@@ 83
weigh@@ 83
relate 83
concepts 83
nit@@ 83
bal 83
victims 83
cyber@@ 83
conveni@@ 83
spin@@ 83
suff@@ 83
swa@@ 83
obama 83
cines 83
pen 83
somewhat 83
desper@@ 82
bles 82
scra@@ 82
rhyth@@ 82
loy@@ 82
explained 82
centuries 82
miser@@ 82
title 82
lung 82
deman@@ 82
ority 82
pound 82
clar@@ 82
eld 82
neither 82
zy 82
parti@@ 82
bucks 82
ond 82
faced 82
19th 82
mind@@ 82
celebrate 82
rice 82
phase 82
scan 82
archi@@ 82
released 82
extra@@ 82
potentially 82
danger 82
imple@@ 82
2005 82
collected 82
itarian 82
wl 82
anding 82
conservation 82
tered 82
functions 82
fire@@ 82
graphics 82
powers 82
frankly 82
africans 82
prices 82
sculpture 82
dolphins 81
oms 81
actors 81
bel 81
conversations 81
wheel 81
loyed 81
moun@@ 81
hood 81
phrase 81
ast@@ 81
paris 81
constant 81
tops 81
rememb@@ 81
civi@@ 81
lers 81
distributed 81
bad@@ 81
symmetry 81
sage 81
geous 81
neutr@@ 81
telescope 81
rors 81
dings 81
recording 81
multi-@@ 81
you@@ 81
mb 81
greenhouse 81
authenti@@ 81
identical 81
chip 81
terrori@@ 81
jury 81
bol@@ 80
lovely 80
resistance 80
cook 80
solid 80
rising 80
shut 80
charity 80
evol@@ 80
gates 80
great@@ 80
gender 80
phili@@ 80
len@@ 80
processing 80
vehicles 80
g-@@ 80
trend 80
obesity 80
compla@@ 80
sue 80
loop 80
controver@@ 80
root 80
divided 80
rist 80
mo 80
mosqu@@ 80
lake 80
statement 80
occur 80
grows 80
implications 80
zi@@ 80
flower 80
pair 80
depend 80
careful 80
surely 80
paintings 80
input 80
swi@@ 80
iphone 80
papers 80
bers 80
now@@ 80
shoulder 80
proof 80
chapter 80
fat@@ 79
persu@@ 79
oes 79
woo@@ 79
lest 79
commitment 79
instin@@ 79
intuitive 79
handle 79
consumers 79
clever 79
equation 79
techn@@ 79
co-@@ 79
dead@@ 79
voca@@ 79
trig@@ 79
scrip@@ 79
rations 79
struck 79
exploring 79
kic@@ 79
extin@@ 79
organism 79
kingdom 79
prepar@@ 79
4,000 79
disorder 79
nel 79
alian 79
four-@@ 79
gps 79
tian 79
crea@@ 79
stayed 79
glu@@ 79
calcu@@ 79
classes 79
any@@ 79
tician 79
density 79
russia 79
france 79
clinic 79
required 79
reser@@ 79
ji@@ 79
introduc@@ 79
list@@ 79
lion 79
infinite 79
spider 79
aud@@ 79
score 79
tat@@ 79
synthetic 79
pile 78
arctic 78
immune 78
rhe@@ 78
tall 78
allo@@ 78
sticks 78
automatically 78
genius 78
psych@@ 78
hope@@ 78
measuring 78
agency 78
acked 78
existed 78
moder@@ 78
rement 78
quarter 78
economist 78
mess 78
scared 78
dynamics 78
frac@@ 78
ims 78
ay@@ 78
joined 78
determin@@ 78
sel 78
extinct 78
interview 78
bell 78
interactive 78
till 78
ast 78
brow@@ 78
gile 78
vement 78
circuit 78
inations 78
cket 78
pho@@ 78
furniture 78
underst@@ 78
peac@@ 78
mm 78
cup 78
bust 78
chose 78
certainty 78
puzzle 78
romantic 78
disorders 78
compos@@ 78
dh 78
allowing 78
mechanism 77
desk 77
fam@@ 77
2009 77
dramatically 77
dire@@ 77
clay 77
opposed 77
innov@@ 77
auc@@ 77
button 77
floo@@ 77
dozen 77
shop@@ 77
div@@ 77
latin 77
christmas 77
tionary 77
unk 77
fare 77
foot@@ 77
ply 77
severe 77
march 77
optimistic 77
ich 77
uganda 77
patho@@ 77
ass 77
cow 77
syl@@ 77
sely 77
ty-@@ 77
pressing 77
eds 77
grass 77
geome@@ 77
awesome 77
facial 77
arti@@ 77
om 77
physicist 77
dian 77
lift 77
candi@@ 77
refer@@ 77
dates 77
zoom 77
symptoms 77
tour 77
embedded 77
pregnant 77
corn 77
loo@@ 77
dict@@ 77
journalist 77
fan 77
space@@ 77
peter 77
chocolate 76
hel@@ 76
sively 76
sized 76
dder 76
half-@@ 76
separ@@ 76
breathe 76
shment 76
hunger 76
arguments 76
productivity 76
recovery 76
providing 76
dee@@ 76
anxi@@ 76
edit@@ 76
herself 76
thal 76
autism 76
communications 76
slides 76
dot@@ 76
adam 76
vessels 76
tricks 76
ough 76
particle 76
yard 76
mir@@ 76
lef@@ 76
eigh@@ 76
stations 76
remove 76
disp@@ 76
puzz@@ 76
ere 76
false 76
ise 76
deva@@ 76
attached 76
snow 76
functional 76
happier 76
lessly 76
nowhere 76
lized 76
attacks 76
tali@@ 76
ski@@ 76
monkey 76
20,000 76
carried 76
economies 76
smoke 76
olymp@@ 76
frustr@@ 76
spoken 76
sul@@ 76
texas 75
yo 75
tals 75
acu@@ 75
ade 75
depending 75
dur@@ 75
itu@@ 75
ideal 75
dirty 75
corpo@@ 75
gments 75
doors 75
height 75
close@@ 75
poorest 75
collap@@ 75
pure 75
follo@@ 75
plays 75
divide 75
ter-@@ 75
acks 75
tower 75
arian 75
funded 75
anim@@ 75
dust 75
etary 75
an-@@ 75
microscope 75
laugh 75
oling 75
tus 75
orbit 75
pressive 75
letting 75
soft 75
efs 75
resolution 75
barre@@ 75
mies 75
nai@@ 75
standards 75
cei@@ 75
friendly 75
frank 75
logi@@ 75
centi@@ 75
congo 75
turing 75
psychiat@@ 75
probability 75
surrounded 75
judge 75
increases 75
tum@@ 75
passing 74
samples 74
populations 74
whales 74
mics 74
spots 74
grandfather 74
iso@@ 74
by-@@ 74
color@@ 74
appreci@@ 74
savings 74
pharmac@@ 74
incentives 74
ound@@ 74
tax 74
outcomes 74
sexu@@ 74
brief 74
indepen@@ 74
ater 74
painful 74
cement 74
cot@@ 74
intense 74
silence 74
palest@@ 74
lifestyle 74
entered 74
gas@@ 74
velo@@ 74
yn@@ 74
pad 74
truck 74
cock@@ 74
dem@@ 74
whi@@ 74
meetings 74
psychological 74
islamic 74
fifth 74
persi@@ 74
chromo@@ 74
aside 74
prece@@ 74
origami 74
hello 74
locked 74
mentally 74
stron@@ 74
translate 74
symme@@ 74
wanting 74
enemy 74
relations 74
ben 74
appreciate 74
muslims 74
dop@@ 74
year-olds 74
tasks 74
sweden 74
toxic 73
recomm@@ 73
tract 73
tack@@ 73
usual 73
algorith@@ 73
pushing 73
bee 73
destroyed 73
promi@@ 73
zz 73
repair 73
dency 73
drinking 73
atlantic 73
interestingly 73
agreed 73
hren@@ 73
of@@ 73
reaching 73
dece@@ 73
19 73
raising 73
u.s 73
cer 73
spiritual 73
secure 73
properly 73
anda 73
so-called 73
astronom@@ 73
frozen 73
regar@@ 73
glo@@ 73
otic 73
tel@@ 73
habitat 73
ffici@@ 73
kni@@ 73
genu@@ 73
disappeared 73
sheep 73
form@@ 73
afterwards 73
hide 73
ech@@ 73
inspire 73
mainly 73
dless 73
tion-@@ 73
club 73
demon@@ 73
nets 73
session 73
ssive 73
was@@ 73
telephone 73
weak 73
shooting 73
inclu@@ 73
virtually 73
contin@@ 73
derek 73
floating 72
frighten@@ 72
uri@@ 72
represented 72
citiz@@ 72
ices 72
granted 72
limits 72
motivation 72
champ@@ 72
what@@ 72
replac@@ 72
zar@@ 72
eling 72
balloon 72
equally 72
offered 72
appears 72
sculp@@ 72
smel@@ 72
precisely 72
democr@@ 72
capit@@ 72
remar@@ 72
muscles 72
ak@@ 72
stly 72
virtu@@ 72
truc@@ 72
profession@@ 72
band@@ 72
bible 72
offers 72
voted 72
carb@@ 72
spher@@ 72
orange 72
illegal 72
fiber 72
all-@@ 72
eradi@@ 72
spee@@ 72
itude 72
extent 72
border 72
advertising 72
korea 72
elev@@ 72
degra@@ 72
fall@@ 72
assume 72
wol@@ 72
tis@@ 72
ounded 72
oxy@@ 72
ye@@ 72
heaven 72
fusion 72
produc@@ 72
links 72
season 72
datab@@ 72
cau@@ 72
ried 72
vulnerability 72
tag 72
whale 71
ome@@ 71
seed 71
antici@@ 71
angry 71
disappear 71
dding 71
academic 71
toilet 71
aly 71
guil@@ 71
hill 71
six-@@ 71
plenty 71
institu@@ 71
diabetes 71
ures 71
adolesc@@ 71
presented 71
retro@@ 71
rwanda 71
mbers 71
appeared 71
27 71
curren@@ 71
long-@@ 71
manipu@@ 71
tica 71
dioxide 71
grab 71
rocks 71
drawn 71
breathing 71
abun@@ 71
practices 71
2004 71
hardly 71
feature 71
mping 71
footage 71
accessible 71
viol@@ 71
backwards 71
elec@@ 71
95 71
script 71
taneously 71
breaks 71
obstac@@ 71
distant 71
quar@@ 71
pool 71
application 71
vations 71
adding 71
tric 71
fortune 71
crimin@@ 71
jack 71
exhibition 71
formul@@ 71
ald 71
tary 71
diss@@ 71
contrac@@ 71
run@@ 71
fur@@ 71
governance 71
iron 71
lored 71
council 71
catal@@ 71
random@@ 71
illusion 71
photography 71
passen@@ 71
tragedy 70
fixed 70
ght 70
prefer 70
controlling 70
eye@@ 70
tt 70
life@@ 70
silicon 70
tting 70
nels 70
subur@@ 70
isol@@ 70
side@@ 70
contrast 70
ition 70
maintain 70
mining 70
tied 70
provided 70
fic@@ 70
stitu@@ 70
fit@@ 70
addre@@ 70
dama@@ 70
mri 70
ib@@ 70
disco@@ 70
overall 70
reflect 70
morality 70
agenda 70
cry 70
chart 70
eric 70
copyright 70
millen@@ 70
ght-@@ 70
serving 70
14@@ 70
full-@@ 70
knee 70
sent@@ 70
dor@@ 70
symbol 70
bby 70
wer@@ 70
behave 70
pler 70
earthquake 70
sity 70
suffer 70
gins 70
educated 70
attemp@@ 70
rus 70
x-ray 70
thrown 70
statisti@@ 70
empha@@ 70
civiliz@@ 70
sheet 70
dot 70
l-@@ 70
bed@@ 70
reduction 70
mentation 70
22 70
polar 70
curiosity 70
improvi@@ 70
beer 70
pati@@ 70
ues 70
neuron 70
welcome 70
tas@@ 70
chaos 70
bf 70
labe@@ 69
gather@@ 69
legacy 69
-to-@@ 69
life-@@ 69
prototype 69
philanthro@@ 69
talent 69
wre@@ 69
capitalism 69
enting 69
vely 69
stanford 69
robotic 69
headed 69
like@@ 69
catastro@@ 69
cute 69
scary 69
federal 69
fascinated 69
inno@@ 69
athe@@ 69
film@@ 69
spreading 69
gree@@ 69
tab@@ 69
parallel 69
consequence 69
privilege 69
eve 69
eping 69
january 69
stores 69
positions 69
lev@@ 69
calculate 69
bars 69
od 69
recogn@@ 69
transi@@ 69
succeed 69
provides 69
oldest 69
fif@@ 69
got@@ 69
nobel 69
ale@@ 69
frequency 69
contains 69
robo@@ 69
mou@@ 69
official 69
elephant 69
eleg@@ 69
globalization 69
historical 69
purcha@@ 69
shock 69
blow 69
sory 69
adapt 69
metabo@@ 69
bicycle 68
a.@@ 68
imagined 68
mption 68
inde@@ 68
bud@@ 68
cle@@ 68
zer@@ 68
license 68
tural 68
shirt 68
agri@@ 68
seas 68
construct 68
lect 68
mour 68
unbeliev@@ 68
apartment 68
ctory 68
destroy 68
customers 68
dimen@@ 68
oxford 68
cosmo@@ 68
theless 68
units 68
but@@ 68
belon@@ 68
golf 68
itory 68
65 68
gon 68
spa@@ 68
pan 68
tiles 68
flip 68
wide@@ 68
linear 68
manhattan 68
irani@@ 68
recognized 68
overcome 68
diff@@ 68
orchestra 68
personality 68
priv@@ 68
theore@@ 68
soviet 68
shell 68
ouri@@ 68
lens 68
transforma@@ 68
cheaper 68
30s 68
terrorism 68
ghana 68
innovations 68
emergency 68
transparency 68
seats 68
aff@@ 68
constra@@ 68
stat@@ 68
speakers 68
ached 68
higgs 68
194@@ 67
includes 67
ppe@@ 67
willi@@ 67
aspi@@ 67
bias 67
aspects 67
2003 67
owned 67
firm 67
reson@@ 67
pus 67
hero@@ 67
bold 67
boards 67
hearts 67
farmer 67
ugly 67
80s 67
univer@@ 67
ridiculous 67
speaker 67
secondly 67
tage 67
industries 67
gap@@ 67
gather 67
cos@@ 67
electronics 67
nia 67
determined 67
offic@@ 67
ker@@ 67
extract 67
pir@@ 67
missed 67
opens 67
hang 67
apparently 67
anony@@ 67
critici@@ 67
affordable 67
honest@@ 67
distri@@ 67
reputation 67
humor 67
martin 67
integrated 67
organize 67
describes 67
searching 67
partici@@ 67
microsoft 67
memories 67
conflicts 67
yours 67
amed 67
kets 67
rings 67
inju@@ 67
sports 67
tori@@ 67
demonstrate 67
photographer 67
dependent 67
shy 67
beliefs 67
nap@@ 67
courage 67
suicide 67
dimensional 67
lee 67
sw 67
inch 66
attribu@@ 66
darkness 66
tial 66
poet 66
pace 66
timate 66
produces 66
monitor 66
foods 66
fortunately 66
,00@@ 66
winning 66
2006 66
drove 66
near@@ 66
develo@@ 66
footprint 66
stors 66
arro@@ 66
loaded 66
ological 66
guaran@@ 66
crying 66
lem@@ 66
sic 66
guide 66
bli@@ 66
divi@@ 66
pleas@@ 66
dialo@@ 66
lecture 66
involves 66
compan@@ 66
tank 66
landed 66
achieved 66
-of-@@ 66
permanent 66
inje@@ 66
prescri@@ 66
itous 66
lize 66
transport 66
musicians 66
cker 66
recognition 66
rer 66
90s 66
cats 66
alizing 66
volunteers 66
dig 66
prototy@@ 66
uss 66
capita 66
stere@@ 66
dignity 66
gui@@ 66
gang 66
pret@@ 66
mary 66
happ@@ 66
chimpanzees 66
fic 66
improvement 66
explaining 66
correspon@@ 66
span@@ 66
boundaries 66
confi@@ 66
collecting 66
dic 66
pione@@ 65
yor 65
volunte@@ 65
day@@ 65
quarters 65
astonishing 65
trends 65
worker 65
good@@ 65
anthropo@@ 65
removed 65
elsewhere 65
surfaces 65
ion 65
intu@@ 65
jail 65
thirds 65
tain@@ 65
ulty 65
rush 65
doz@@ 65
propos@@ 65
viral 65
expos@@ 65
layers 65
gran@@ 65
expen@@ 65
dou@@ 65
ordin@@ 65
israel@@ 65
mammals 65
optimi@@ 65
ima@@ 65
accidents 65
heal@@ 65
traveled 65
nucle@@ 65
anima@@ 65
continues 65
finds 65
contribute 65
text@@ 65
cryst@@ 65
vital 65
output 65
vietna@@ 65
assign@@ 65
facility 65
recep@@ 65
chim@@ 65
super 65
figuring 65
rif@@ 65
monit@@ 65
ales 65
ques@@ 65
angi@@ 65
gible 65
elections 65
lls 65
neural 65
mol@@ 65
harm 65
borders 65
morous 65
coca@@ 65
tribes 65
diagram 64
polit@@ 64
reduced 64
shore 64
ecosystems 64
stor 64
neighbor 64
likes 64
haw@@ 64
weal@@ 64
engaging 64
fiction 64
hanging 64
dedicated 64
bure@@ 64
chief 64
right-@@ 64
surprisingly 64
angeles 64
alien 64
class@@ 64
assembly 64
hire 64
ethiopia 64
250 64
baseball 64
isms 64
depressed 64
concern 64
react 64
ts@@ 64
ignore 64
gur@@ 64
premi@@ 64
ament 64
qualities 64
founded 64
educa@@ 64
volcan@@ 64
achu@@ 64
sp 64
grab@@ 64
mitted 64
sex@@ 64
avi@@ 64
pig 64
excuse 64
poster 64
swee@@ 64
ingredients 64
reported 64
rats 64
evolve 64
wild@@ 64
palm 64
cele@@ 64
escape 64
pilot 64
rati@@ 64
shri@@ 64
origin 64
cruci@@ 64
discoveries 64
consume 64
pande@@ 64
criminals 64
iny 64
colleague 64
amongst 64
saturn 64
vacu@@ 64
gin 64
kins 64
limb 64
ti 64
posi@@ 64
ene@@ 64
ooh 64
architectural 64
archy 64
genoci@@ 64
32 63
arely 63
pyramid 63
pollu@@ 63
constructed 63
trou@@ 63
equi@@ 63
verse 63
categor@@ 63
cambridge 63
emerged 63
plying 63
vable 63
storm 63
presen@@ 63
health@@ 63
cash 63
secon@@ 63
pled 63
23 63
receive 63
n-@@ 63
thick 63
announced 63
laun@@ 63
26 63
extended 63
republi@@ 63
traje@@ 63
picking 63
ah@@ 63
cap 63
youn@@ 63
consul@@ 63
encounter 63
scratch 63
erian 63
expedi@@ 63
silent 63
2001 63
achie@@ 63
returned 63
laid 63
smallpox 63
aircraft 63
nurses 63
articles 63
colony 63
static 63
use@@ 63
tip 63
pulling 63
diverse 63
diving 63
witness 63
lays 63
committed 63
daughters 63
shadow 63
vy 63
separated 63
taining 63
pene@@ 63
cle 63
lear@@ 63
art@@ 63
dated 63
chosen 63
initial 63
realm 63
cooperation 63
classical 63
pal 63
rescue 63
i.@@ 63
arly 63
intended 63
naked 63
airport 63
jon@@ 63
spectacular 63
laser 63
vagina 63
geographic 63
phosp@@ 63
wheelchair 63
oning 62
func@@ 62
controls 62
predictable 62
underground 62
holi@@ 62
gir@@ 62
autonom@@ 62
danger@@ 62
diagnosed 62
trau@@ 62
after@@ 62
lig@@ 62
fs 62
liberal 62
expect@@ 62
conve@@ 62
ri 62
vember 62
alex@@ 62
disagre@@ 62
mach@@ 62
titu@@ 62
disappe@@ 62
conclude 62
distur@@ 62
drill 62
tize 62
biologists 62
super-@@ 62
enz@@ 62
refuge@@ 62
seek 62
consci@@ 62
ul 62
ethical 62
gent@@ 62
dol@@ 62
obe@@ 62
briefly 62
lete 62
excellent 62
predictions 62
deri@@ 62
frog 62
itations 62
ricul@@ 62
alzheimer 62
alled 62
arra@@ 62
fisher@@ 62
howard 62
stered 62
fathers 62
dear 62
artistic 62
dinosaur 62
underlying 62
process@@ 62
thane 62
astron@@ 62
filter 62
resilience 62
skep@@ 62
focusing 62
tes@@ 62
contract 62
invite 62
openness 62
extre@@ 62
policies 62
3.@@ 62
rub@@ 62
unlikely 62
vas@@ 62
istics 62
glasses 62
diam@@ 62
mia 62
efforts 61
plat@@ 61
ance@@ 61
fabulous 61
hoo@@ 61
tin 61
debt 61
organizing 61
disap@@ 61
tired 61
ville 61
nutrition 61
favor 61
jewish 61
emerge 61
strangers 61
schizop@@ 61
observation 61
watts 61
fruit 61
reports 61
parado@@ 61
less@@ 61
rarely 61
mono@@ 61
fal@@ 61
proper 61
u.@@ 61
writers 61
treatments 61
mail 61
florida 61
gathering 61
native 61
dress 61
sionally 61
football 61
ician 61
stages 61
adver@@ 61
commit@@ 61
interacting 61
visit@@ 61
inches 61
distr@@ 61
jelly@@ 61
researcher 61
strategies 61
kel@@ 61
simpli@@ 61
universities 61
night@@ 61
globally 61
june 61
synthe@@ 61
frontal 61
neuroscience 61
ing-@@ 61
practic@@ 61
habit@@ 61
tici@@ 61
lawyers 61
lions 61
clients 61
engagement 61
thou@@ 61
filling 61
fears 61
shine 61
entally 60
chic@@ 60
lities 60
edu@@ 60
gle 60
accur@@ 60
prob@@ 60
pon 60
beg@@ 60
conven@@ 60
state@@ 60
may@@ 60
ves@@ 60
agen@@ 60
concep@@ 60
kable 60
dolph@@ 59
safe@@ 59
immedi@@ 59
expe@@ 59
mun@@ 59
sic@@ 59
spect@@ 59
ara@@ 59
quot@@ 59
terr@@ 59
succe@@ 59
x-@@ 59
sear@@ 59
mote 59
mous 59
s. 59
spre@@ 59
neighbor@@ 59
presi@@ 58
uring 58
qua@@ 58
physi@@ 58
construc@@ 58
surge@@ 58
obse@@ 58
arch@@ 58
mely 58
ury 58
gry 58
let@@ 58
midd@@ 58
ports 57
tioned 57
announ@@ 57
chri@@ 57
pper 57
egy@@ 57
sionate 57
deta@@ 57
develop@@ 57
main@@ 57
regu@@ 57
toi@@ 57
condi@@ 56
ished 56
diffic@@ 56
kee@@ 56
dation 56
desi@@ 56
symbo@@ 56
justi@@ 56
magne@@ 56
chemi@@ 56
yers 55
dia 55
favor@@ 55
stom@@ 55
ety 55
differ@@ 55
infin@@ 55
nam@@ 55
abi@@ 55
restaur@@ 55
q 55
é@@ 55
stac@@ 54
exper@@ 54
benef@@ 54
destro@@ 54
engine@@ 54
temper@@ 54
ency 54
poe@@ 54
batter@@ 54
bble 54
hus@@ 54
strate@@ 54
org@@ 54
stances 53
experi@@ 53
cate@@ 53
dom 53
ack@@ 53
distribu@@ 53
gely 53
therap@@ 53
conclu@@ 53
rying 53
nific@@ 53
metaph@@ 53
sually 53
with@@ 53
ests 53
asy 53
centr@@ 53
ste 53
cess 53
cell@@ 52
vements 52
pid 52
tum 52
desp@@ 52
chil@@ 52
formation 52
glob@@ 52
ticians 52
fair@@ 52
classi@@ 52
simp@@ 52
corru@@ 52
dec@@ 52
thers 52
ridge 51
seas@@ 51
individu@@ 51
rele@@ 51
teach@@ 51
tempor@@ 51
yel@@ 51
narra@@ 51
gentle@@ 51
nig@@ 51
horri@@ 51
newsp@@ 51
ference 51
clear@@ 51
aded 50
challeng@@ 50
sibility 50
care@@ 50
spl@@ 50
spac@@ 50
arc@@ 50
timat@@ 50
fig@@ 50
worl@@ 50
kore@@ 50
roman@@ 50
pengu@@ 50
kne@@ 49
valu@@ 49
ject 49
dir@@ 49
popu@@ 49
satur@@ 49
phil@@ 49
occur@@ 49
spea@@ 49
contro@@ 49
sour@@ 49
musici@@ 49
incre@@ 49
fish@@ 49
eleph@@ 49
vity 49
abo@@ 48
econom@@ 48
peop@@ 48
presents 48
kit@@ 48
uck 48
ght@@ 48
dow@@ 48
ading 48
len 48
campa@@ 47
shir@@ 47
ffe@@ 47
inning 47
ann@@ 47
exhi@@ 47
ind 47
vel 47
prac@@ 47
sof@@ 47
evi@@ 47
meta@@ 47
sop@@ 47
ual 47
avo@@ 46
knowle@@ 46
environ@@ 46
soli@@ 46
provi@@ 46
camer@@ 45
sional 45
cans 45
previ@@ 45
neu@@ 45
transpor@@ 45
scope 45
invest@@ 45
matically 45
cry@@ 45
soldi@@ 45
gement 45
pical 44
grow@@ 44
yor@@ 44
gies 44
vag@@ 44
ign@@ 44
libr@@ 44
vice 44
itary 44
sensi@@ 44
earli@@ 44
exi@@ 44
govern@@ 44
fant@@ 44
appli@@ 44
euro@@ 44
bile 44
ong@@ 44
guar@@ 44
austr@@ 44
them@@ 43
cape 43
tiz@@ 43
sever@@ 43
philosoph@@ 43
techno@@ 43
pedia 43
sal 43
victi@@ 43
figh@@ 43
mus@@ 43
missions 43
geor@@ 43
graphi@@ 43
tox@@ 42
dow 42
é 42
proble@@ 42
aliz@@ 42
ital 42
ope 42
urs 42
fashi@@ 42
selves 42
emo@@ 42
surger@@ 42
cogni@@ 41
privile@@ 41
espe@@ 41
itual 41
industri@@ 41
sen 41
reas@@ 41
fossi@@ 41
dat@@ 41
won@@ 41
achiev@@ 41
osa@@ 41
shoul@@ 41
kly 41
defen@@ 40
kness 40
olved 40
congre@@ 40
chur@@ 40
atures 40
oce@@ 40
cess@@ 40
oni@@ 40
beauti@@ 40
alo@@ 40
four@@ 40
phy@@ 40
keys 40
prev@@ 40
world@@ 40
writ@@ 40
opini@@ 40
fav@@ 40
artic@@ 39
wonder@@ 39
labor@@ 39
itely 39
bir@@ 39
chap@@ 39
isla@@ 39
perfe@@ 39
lli@@ 39
mor 39
infra@@ 39
sav@@ 39
ell 39
geni@@ 39
py@@ 39
sit@@ 39
enor@@ 39
icial 39
year@@ 39
intro@@ 39
ve-@@ 38
osity 38
alia 38
materi@@ 38
liar 38
+ 38
cil 38
tually 38
pathy 38
princi@@ 38
sics 38
deter@@ 38
com 38
ularly 38
press@@ 38
explor@@ 38
satellit@@ 38
treat@@ 38
yea@@ 38
epide@@ 37
pregn@@ 37
extr@@ 37
volu@@ 37
base@@ 37
resc@@ 37
inging 37
trav@@ 37
sequences 37
know@@ 37
acci@@ 36
ada 36
brit@@ 36
resear@@ 36
rais@@ 36
stery 36
recor@@ 36
auton@@ 36
tane@@ 36
scienti@@ 36
gency 36
ingredi@@ 36
tism 36
organiz@@ 36
unity 36
abstr@@ 36
chimpanze@@ 36
intui@@ 36
convin@@ 35
beha@@ 35
brilli@@ 35
ature 35
vid 35
vul@@ 35
manu@@ 35
tory 35
open@@ 35
oran@@ 35
adverti@@ 35
stein 35
struction 35
contex@@ 35
wear@@ 35
cali@@ 35
low@@ 35
bic@@ 35
deb@@ 35
tains 35
democra@@ 34
appropri@@ 34
quic@@ 34
ross 34
sug@@ 34
licen@@ 34
explan@@ 34
esti@@ 34
mas 34
ssa@@ 34
atlan@@ 34
commerci@@ 34
resili@@ 34
circum@@ 34
ston 34
00@@ 33
asure 33
dynam@@ 33
deep@@ 33
fically 33
meas@@ 33
requi@@ 33
of-@@ 33
counter 33
ox@@ 32
ama 32
resul@@ 32
tribu@@ 32
estab@@ 32
sam@@ 32
wheel@@ 32
deca@@ 32
small@@ 32
adul@@ 32
seri@@ 32
envi@@ 32
entially 32
trage@@ 32
rat@@ 32
orchestr@@ 31
kilome@@ 31
impli@@ 31
dows 31
appar@@ 31
inspi@@ 31
clou@@ 31
atmo@@ 31
technologi@@ 31
vil@@ 31
volun@@ 31
curi@@ 30
employ@@ 30
chea@@ 30
phot@@ 30
mea@@ 30
comfor@@ 30
effici@@ 30
easi@@ 30
ballo@@ 30
intel@@ 30
through@@ 30
bilities 30
aria 30
tish 30
eting 30
lars 30
ris 29
gul@@ 29
braz@@ 29
oral 29
exist@@ 29
muse@@ 29
ousness 29
exerci@@ 29
affor@@ 29
electri@@ 29
issu@@ 29
hundre@@ 29
perspe@@ 29
drin@@ 29
beli@@ 29
magaz@@ 29
iness 28
notic@@ 28
child@@ 28
coura@@ 28
dedi@@ 28
sign@@ 28
big@@ 28
one@@ 28
stan 28
tality 28
rough@@ 28
ctively 28
wom@@ 28
diag@@ 28
des@@ 28
astic 28
wis@@ 27
elds 27
sically 27
cred@@ 27
enty 27
efully 27
business@@ 27
mr@@ 27
thous@@ 27
nega@@ 27
foc@@ 27
paki@@ 27
iti 27
fas@@ 27
angel@@ 27
nex@@ 26
tot@@ 26
shou@@ 26
nas@@ 26
tabo@@ 26
ign 26
confli@@ 26
sual 26
olutionary 26
valent 26
scul@@ 26
rand@@ 25
ira@@ 25
effe@@ 25
scrat@@ 25
colle@@ 25
villa@@ 25
capac@@ 25
21@@ 25
poo@@ 25
afri@@ 25
reme@@ 25
ques 25
king@@ 25
anci@@ 24
aca@@ 24
conser@@ 24
refu@@ 24
immun@@ 24
automa@@ 24
spec@@ 24
ington 24
stati@@ 24
ram 24
hospit@@ 24
accor@@ 24
dden 23
performan@@ 23
bicy@@ 23
perman@@ 23
socie@@ 23
excell@@ 23
tremend@@ 23
ural 23
marri@@ 23
á@@ 23
rought 23
other@@ 23
grou@@ 23
vide@@ 23
swim@@ 23
unex@@ 23
intellec@@ 23
dp 23
tech@@ 22
awar@@ 22
meaning@@ 22
vail@@ 22
christ@@ 22
relev@@ 22
scape 22
paralle@@ 22
jel@@ 22
cially 22
oxide 22
ility 22
earth@@ 22
ggle 21
instru@@ 21
natur@@ 21
astoni@@ 21
fami@@ 21
employe@@ 21
f-@@ 21
patter@@ 21
where@@ 21
mista@@ 21
muc@@ 21
oly@@ 21
financi@@ 21
dise@@ 21
avail@@ 21
k. 21
stern 21
een 21
hou@@ 21
nuc@@ 21
ules 20
maj@@ 20
consum@@ 20
corpor@@ 20
unti@@ 20
sities 20
ood 20
twit@@ 20
oppos@@ 20
onics 20
achi@@ 20
europe@@ 20
surpri@@ 20
olds 20
prou@@ 20
dable 20
rene@@ 19
tee@@ 19
ridicul@@ 19
weir@@ 19
predict@@ 19
artif@@ 19
ulous 19
gaz@@ 19
pie@@ 19
oting 19
birth@@ 18
hic@@ 18
cyc@@ 18
fundam@@ 18
symp@@ 18
phra@@ 18
ado@@ 18
wiki@@ 18
wash@@ 18
even@@ 18
sophi@@ 18
exhibi@@ 18
solu@@ 17
alg@@ 17
ength 17
timately 17
awe@@ 17
paradig@@ 17
copy@@ 17
) 17
poun@@ 17
contra@@ 17
psy@@ 17
resour@@ 17
weapon@@ 17
tol@@ 17
face@@ 17
rhy@@ 16
paint@@ 16
acces@@ 16
tivi@@ 16
norm@@ 16
ridi@@ 16
cule 16
situ@@ 16
sophisti@@ 16
phen@@ 16
ameri@@ 16
000 16
feed@@ 16
incenti@@ 16
ead 16
disor@@ 16
chen 16
tely 15
messa@@ 15
organ@@ 15
fren@@ 15
acher 15
rapi@@ 15
ecu@@ 15
% 15
intellig@@ 15
enly 15
wire@@ 15
hosp@@ 15
mana@@ 15
lightly 15
joh@@ 15
call@@ 15
ould 15
diabe@@ 15
icide 15
fortun@@ 14
pover@@ 14
studi@@ 14
ano 14
sev@@ 14
@ 14
ö@@ 14
sustain@@ 14
stero@@ 14
repu@@ 14
… 14
sat@@ 14
– 14
indu@@ 14
so-@@ 13
ethiop@@ 13
í@@ 13
necess@@ 13
# 13
travel@@ 13
cine 13
tainment 13
exac@@ 13
chro@@ 13
phar@@ 13
crete 13
earthqua@@ 13
mamm@@ 13
thes 12
ership 12
tril@@ 12
desig@@ 12
sco 12
chemic@@ 12
ó@@ 12
coffe@@ 12
dn 12
rw@@ 12
erci@@ 12
ree 12
fascin@@ 11
feder@@ 11
mexic@@ 11
religi@@ 11
pyrami@@ 11
= 11
nerv@@ 11
bef@@ 11
anthro@@ 11
angers 11
chocol@@ 10
zen 10
oci@@ 10
effor@@ 10
afgh@@ 10
mole@@ 10
è@@ 10
frigh@@ 10
frame@@ 10
sels 10
clas@@ 10
dist@@ 10
noon 10
augh@@ 10
paci@@ 10
americ@@ 10
ug@@ 10
tex 10
lease 10
lead@@ 9
stud@@ 9
year-@@ 9
cata@@ 9
duce 9
partment 9
jects 9
figu@@ 9
cept 9
( 9
centu@@ 9
nei@@ 9
uro@@ 9
ü@@ 9
ony@@ 9
hous@@ 9
ild 9
meth@@ 9
hind 8
your@@ 8
behavi@@ 8
feel@@ 8
camb@@ 8
slow@@ 8
ught 8
ä@@ 8
conversa@@ 8
aly@@ 8
aga@@ 8
bots 8
symptom@@ 8
ouse 8
certain@@ 8
inese 8
vices 7
_ 7
thom@@ 7
secur@@ 7
percen@@ 7
raid 7
staf@@ 7
^ 7
pment 7
singly 7
tice 7
eric@@ 7
ester@@ 6
vulner@@ 6
discover@@ 6
neur@@ 6
unexpe@@ 6
langu@@ 6
architec@@ 6
beau@@ 6
ã@@ 6
flori@@ 6
micha@@ 6
has@@ 6
degre@@ 6
imer 6
cisco 6
n. 6
brief@@ 6
ide 6
ê@@ 5
disci@@ 5
í 5
omen@@ 5
minu@@ 5
isra@@ 5
ç@@ 5
pically 5
mple 5
terror@@ 5
techni@@ 5
cently 5
transpar@@ 5
califor@@ 5
him@@ 5
stantly 5
vehic@@ 5
อ@@ 5
protot@@ 4
ein@@ 4
complex@@ 4
silic@@ 4
ight 4
aper 4
gagement 4
ñ@@ 4
goti@@ 4
gnity 4
lesc@@ 4
toge@@ 4
happen@@ 4
liqu@@ 4
embed@@ 4
every@@ 4
frien@@ 4
enge 4
sep@@ 4
* 4
rami@@ 4
â 4
 4
 4
yester@@ 4
quan@@ 4
iop@@ 4
opport@@ 4
pox 3
econ@@ 3
incredi@@ 3
spiring 3
proper@@ 3
olution 3
relation@@ 3
partic@@ 3
² 3
indivi@@ 3
ø@@ 3
entre@@ 3
meet@@ 3
ā@@ 3
absolu@@ 3
rote 3
gami 3
à 3
hatt@@ 3
heimer 3
dinosa@@ 3
possi@@ 3
ggs 3
research@@ 3
£ 3
..@@ 3
lecules 3
tware 3
betw@@ 3
eful@@ 3
celer@@ 3
ร 3
่ 3
harv@@ 3
ë@@ 2
japan@@ 2
ô@@ 2
philo@@ 2
â@@ 2
ï@@ 2
innova@@ 2
obvi@@ 2
chimp@@ 2
è 2
amoun@@ 2
does@@ 2
ú@@ 2
furnit@@ 2
€ 2
viet@@ 2
送@@ 2
你@@ 2
葱 2
unities 2
mathe@@ 2
acular 2
interest@@ 2
compon@@ 2
else@@ 2
ă@@ 2
ť 2
ē 2
ย@@ 2
ย 2
mend@@ 2
jap@@ 2
archite@@ 2
\ 2
chall@@ 2
trum 2
boundar@@ 2
ć 2
€@@ 1
?@@ 1
อ 1
ç 1
;@@ 1
ă 1
(@@ 1
& 1
²@@ 1
#@@ 1
:@@ 1
ï 1
ä 1
=@@ 1
%@@ 1
ñ 1
/@@ 1
葱@@ 1
&@@ 1
ö 1
่@@ 1
)@@ 1
…@@ 1
–@@ 1
@@ 1
á 1
送 1
\@@ 1
ø 1
@@ 1
^@@ 1
$@@ 1
!@@ 1
ā 1
ë 1
ร@@ 1
*@@ 1
@@@ 1
+@@ 1
你 1
—@@ 1
ú 1
ã 1
ó 1
ü 1
ť@@ 1
ê 1
ô 1
£@@ 1
_@@ 1
ē@@ 1
à@@ 1
ć@@ 1
