, 191366
. 161646
the 134634
and 96626
to 78772
of 73794
a 69873
that 59874
i 53368
in 51226
it 49203
you 45800
is 42112
we 42022
&apos;s 36496
this 32250
so 23552
&quot; 22867
they 21066
was 19121
-- 18926
for 18907
are 17815
on 17769
have 17233
what 17025
but 16796
with 15948
can 15344
? 14217
&apos;t 14070
about 13691
there 13605
as 13020
at 12876
be 12801
all 12363
do 11689
not 11572
one 11409
&apos;re 10920
my 10797
people 10668
an 10470
if 10233
like 10074
from 10068
he 9662
now 9229
or 9138
these 9017
just 8964
our 8505
: 8418
because 8221
when 8212
very 8014
out 7896
how 7739
by 7674
me 7667
know 7404
them 7303
up 7281
going 7184
which 6913
more 6741
here 6728
think 6719
had 6666
see 6622
who 6384
your 6321
really 6293
their 6188
get 6178
us 6168
would 6085
then 6077
were 6048
&apos;ve 5922
world 5766
some 5653
time 5619
&apos;m 5574
has 5368
don 5311
actually 5305
way 5222
into 5192
things 4970
where 4914
will 4874
years 4872
go 4772
other 4690
no 4590
well 4537
could 4504
want 4447
re@@ 4379
make 4315
been 4256
said 4255
right 4095
she 4086
something 4040
first 3852
two 3828
than 3802
those 3794
his 3742
look 3739
little 3652
new 3610
got 3596
thing 3574
also 3559
much 3519
back 3453
say 3427
-@@ 3419
life 3401
; 3386
most 3373
over 3345
work 3280
only 3235
even 3176
take 3156
kind 3141
many 3073
did 3007
need 2977
in@@ 2968
good 2932
around 2868
lot 2846
why 2844
down 2817
&apos;ll 2769
let 2749
different 2692
every 2686
ing 2670
a@@ 2667
through 2665
use 2645
her 2615
able 2585
come 2578
day 2512
same 2479
s@@ 2472
being 2413
put 2412
doing 2399
un@@ 2380
es 2354
k@@ 2329
its 2308
ed 2291
three 2279
d@@ 2275
g@@ 2249
any 2204
called 2170
de@@ 2168
made 2157
percent 2157
talk 2150
&apos;d 2145
e@@ 2143
en@@ 2091
today 2079
great 2061
after 2055
o@@ 2018
ted 2016
t@@ 1999
tell 1995
year 1967
human 1960
big 1923
e 1922
al 1919
fact 1918
another 1914
find 1910
last 1906
own 1877
idea 1856
p@@ 1850
didn 1831
before 1826
change 1826
i@@ 1822
give 1821
t 1819
ate 1811
went 1800
should 1797
started 1785
er 1783
thought 1775
s 1743
b@@ 1733
off 1722
di@@ 1712
story 1707
never 1688
better 1679
important 1679
again 1679
course 1674
al@@ 1664
o 1657
show 1650
system 1641
end 1637
him 1628
does 1627
co@@ 1626
c@@ 1625
problem 1622
start 1619
next 1609
might 1608
each 1602
still 1600
together 1599
u@@ 1599
used 1598
part 1597
place 1592
ago 1590
li@@ 1585
brain 1579
technology 1578
le@@ 1578
came 1569
ro@@ 1568
thank 1560
man 1549
bit 1540
ma@@ 1508
water 1507
ated 1500
&apos; 1500
lo@@ 1500
ri@@ 1492
m@@ 1491
y@@ 1489
between 1480
long 1478
few 1471
looking 1467
too 1459
less 1443
point 1442
mean 1438
ts 1431
m 1425
ti@@ 1423
y 1421
sort 1402
maybe 1398
done 1395
se@@ 1381
children 1377
found 1374
question 1360
ar@@ 1357
love 1355
whole 1352
doesn 1351
school 1347
data 1342
ers 1339
ca@@ 1338
example 1330
an@@ 1329
be@@ 1329
understand 1324
may 1319
wanted 1319
try 1316
st 1310
l@@ 1306
four 1305
am 1297
real 1288
working 1285
call 1283
live 1273
ly 1273
million 1270
trying 1264
women 1254
pro@@ 1247
away 1245
ever 1243
n@@ 1241
light 1233
money 1230
person 1229
power 1229
r@@ 1228
h@@ 1226
10 1224
using 1223
everything 1222
always 1218
kids 1218
con@@ 1214
f@@ 1212
believe 1208
p 1196
feel 1196
la@@ 1194
five 1194
ha@@ 1192
th@@ 1191
design 1185
d 1179
ting 1174
pe@@ 1172
country 1171
space 1169
st@@ 1168
ating 1168
help 1168
at@@ 1155
red 1154
it@@ 1152
ch@@ 1145
im@@ 1144
thinking 1142
number 1141
create 1139
v@@ 1137
me@@ 1134
po@@ 1130
times 1130
took 1127
second 1124
k 1120
information 1120
old 1113
energy 1108
ac@@ 1107
age 1105
food 1103
means 1100
sense 1093
w@@ 1088
bo@@ 1085
mo@@ 1084
! 1082
getting 1078
side 1077
future 1075
become 1072
quite 1071
comes 1067
enough 1066
j@@ 1064
best 1056
small 1055
says 1053
g 1052
probably 1052
building 1049
le 1045
making 1043
or@@ 1042
sh@@ 1034
ra@@ 1032
er@@ 1028
without 1027
city 1027
home 1022
play 1019
z@@ 1019
left 1013
interesting 1010
stuff 1010
social 1005
body 1004
talking 1004
mi@@ 1002
science 994
ds 990
sa@@ 990
room 990
ta@@ 988
ways 986
coming 983
africa 983
happened 982
mar@@ 982
l 980
on@@ 978
ation 975
earth 975
se 971
ous 965
dollars 964
tion 963
si@@ 959
20 952
ex@@ 952
half 950
ask 949
anything 945
car@@ 944
goes 930
ding 930
while 930
seen 927
ab@@ 925
line 923
simple 922
ne@@ 922
pretty 921
makes 921
lives 918
told 914
ans 912
king 912
across 911
set 909
no@@ 908
case 905
once 904
bu@@ 903
happen 902
c 902
build 901
such 899
living 897
basically 895
el@@ 891
saw 890
men 886
ge@@ 885
else 885
project 885
book 884
health 881
car 881
imagine 879
yet 879
sp@@ 878
picture 874
moment 872
hand 871
countries 870
days 869
happens 867
bad 864
als 862
having 860
care 857
okay 854
am@@ 853
family 853
led 850
experience 847
hard 845
asked 843
ent 843
move 841
problems 841
global 840
later 839
ideas 833
high 832
learn 831
dis@@ 831
su@@ 831
land 829
bi@@ 829
ok 829
young 828
computer 826
inside 814
ses 814
business 811
ine 810
vi@@ 809
planet 807
everybody 805
form 803
six 803
process 801
n 799
as@@ 798
history 798
ity 797
ad@@ 795
reason 795
art 795
saying 794
states 793
man@@ 793
nothing 792
pa@@ 792
x 791
both 791
child 781
single 780
whether 779
sure 778
almost 778
within 778
ver@@ 776
nature 775
looks 774
far 771
cells 771
billion 769
ks 768
oh 768
mind 767
top 766
com@@ 765
already 763
bring 762
50 762
to@@ 761
wrong 761
remember 757
music 757
keep 755
ter 753
b 752
guy 749
possible 745
son 744
true 743
pre@@ 742
cancer 741
war 740
ded 740
heard 736
hope 734
beautiful 732
looked 732
ves 731
tions 730
read 728
often 726
gu@@ 726
matter 724
ic 721
th 720
open 720
&amp; 720
do@@ 720
ling 719
ps 718
gets 715
de 714
piece 714
face 714
group 712
india 712
per 710
30 710
yes 709
built 708
video 707
months 706
works 704
amazing 704
community 703
mu@@ 702
answer 702
public 699
stories 697
god 697
someone 696
hi@@ 696
ability 695
taking 694
universe 694
myself 692
united 691
places 690
der 690
pi@@ 690
inter@@ 687
instead 687
te@@ 687
words 684
since 684
education 683
head 682
until 682
research 682
ment 680
species 678
isn 677
mon@@ 676
ourselves 676
under 676
sometimes 674
so@@ 672
control 669
per@@ 668
fi@@ 667
gra@@ 667
state 666
ones 666
he@@ 665
turn 665
government 665
ir@@ 663
il@@ 662
decided 662
cu@@ 661
somebody 660
ance 658
internet 657
... 655
couple 653
order 653
sc@@ 651
level 651
du@@ 651
night 650
language 650
turns 649
ur@@ 649
rather 648
heart 647
um 646
min@@ 646
house 645
middle 644
pri@@ 644
happy 643
exactly 643
4@@ 637
op@@ 637
wasn 635
kinds 634
though 633
everyone 633
les 630
stop 630
yeah 628
itself 628
large 628
tive 628
run 627
tu@@ 626
ates 625
mother 625
ant 625
completely 624
themselves 623
woman 622
animals 621
minutes 621
word 620
students 619
front 618
society 617
sound 617
hu@@ 616
became 615
na@@ 615
game 614
ies 613
te 611
share 610
job 610
model 609
must 609
100 608
company 607
3@@ 605
happening 605
name 604
air 602
par@@ 602
gi@@ 601
learned 601
created 599
environment 599
for@@ 598
hear 598
study 598
u 598
friends 597
huge 596
lots 595
ru@@ 595
oil 594
hours 593
america 593
&#91; 592
&#93; 592
es@@ 590
news 590
shows 589
third 589
century 584
natural 583
won 583
h 581
disease 580
ms 580
is@@ 579
guys 578
d-@@ 578
along 576
ju@@ 576
worked 573
fe@@ 572
american 572
china 569
questions 567
self-@@ 565
perhaps 565
figure 565
market 564
particular 564
moving 563
knew 562
early 562
har@@ 561
tic 560
ho@@ 559
against 559
ve 558
others 558
couldn 558
area 556
sts 556
ally 553
gave 552
ni@@ 552
over@@ 551
during 551
ocean 550
learning 550
past 550
size 550
ol@@ 547
1@@ 544
takes 544
ons 543
scale 543
go@@ 541
machine 541
least 539
ter@@ 537
cell 535
outside 534
en 533
ls 533
ness 533
pu@@ 531
finally 531
free 531
systems 530
wi@@ 529
ge 528
qu@@ 528
difference 527
15 526
wonderful 526
seven 525
culture 524
needs 524
entire 524
taken 523
ice 523
view 522
wa@@ 519
ator 519
ked 518
tri@@ 517
test 516
ful 516
ag@@ 515
ry 514
sub@@ 513
close 513
ic@@ 512
r 511
x@@ 511
thousands 510
based 509
fish 509
.@@ 508
powerful 505
parts 503
whatever 503
turned 501
ors 501
seeing 500
tra@@ 500
population 500
changed 500
ba@@ 499
ph@@ 499
ck 499
om@@ 498
york 498
tr@@ 498
yourself 498
che@@ 498
grow 497
beginning 496
given 495
leave 494
the@@ 494
behind 494
certain 494
cost 494
ber@@ 494
eight 493
spend 493
ga@@ 492
eyes 492
w 491
ence 491
image 491
sti@@ 488
audience 487
ins 486
parents 486
green 485
2 484
ty 484
walk 483
des 482
war@@ 482
terms 482
force 479
amount 479
interested 479
death 478
easy 478
cannot 477
center 477
economic 477
sing 476
media 476
ke 474
dy 474
table 474
trans@@ 474
5@@ 474
ce@@ 473
common 472
team 471
full 470
buy 470
rest 469
difficult 468
gone 468
known 468
den@@ 467
books 467
began 466
local 466
gs 465
2@@ 465
ma 462
week 461
cha@@ 461
act 459
hands 458
father 457
med 456
friend 456
needed 454
paper 453
simply 452
longer 452
lin@@ 452
tw@@ 451
lation 451
cities 451
field 451
black 450
ved 450
ary 450
sion 450
deal 449
sin@@ 449
value 449
spent 449
realized 449
je@@ 449
sive 449
either 448
incredible 448
humans 448
gr@@ 448
us@@ 448
tried 444
born 443
y-@@ 443
jo@@ 443
ar 443
ck@@ 443
ground 443
national 441
pos@@ 441
ce 440
forward 439
step 439
phone 439
up@@ 438
ten@@ 438
hold 438
ban@@ 438
ste@@ 438
growth 438
ch 437
surface 437
quickly 436
sitting 435
stage 435
feet 435
watch 434
companies 434
sted 432
complex 431
west 431
ci@@ 431
ws 430
structure 429
under@@ 428
girl 428
lost 428
bur@@ 428
dna 427
sh 426
wouldn 426
knowledge 426
40 425
growing 425
blue 424
ke@@ 423
pay 423
met 423
miles 422
ments 422
super@@ 422
die 418
em 418
south 417
political 417
poor 416
white 416
wing 415
cut 414
eat 413
economy 413
weeks 412
8 412
felt 412
fun 412
animal 412
3 411
ged 411
sea 411
behavior 410
fly 410
reality 410
technologies 410
da@@ 409
action 409
giving 409
ster 408
opportunity 408
ters 408
cra@@ 407
brought 406
dra@@ 406
developed 406
changes 406
sen@@ 406
ss 406
street 405
telling 404
can@@ 403
wrote 403
ving 403
morning 403
personal 403
sha@@ 402
scientists 402
anyone 402
out@@ 402
patients 402
re 401
/ 399
starting 399
gh@@ 398
write 398
ff@@ 397
cor@@ 397
program 396
theory 396
pped 395
feeling 395
sions 395
stri@@ 395
lu@@ 395
patient 395
bri@@ 394
19@@ 393
areas 393
images 393
key 392
ser@@ 392
20@@ 392
gives 391
ging 391
ings 391
ship 391
nice 391
ches 390
ul@@ 389
ents 389
ther@@ 388
ties 388
understanding 388
enti@@ 387
u.s. 387
sun 387
climate 386
attention 385
7@@ 385
ari@@ 385
tional 385
discovered 385
fo@@ 384
low 384
short 383
ger 383
4 382
literally 382
br@@ 381
ia 381
speak 381
z 380
seems 379
film 379
blo@@ 378
tools 378
cars 378
numbers 378
produce 377
lt 377
non-@@ 377
realize 375
average 375
7 375
ver 374
cal 373
bar@@ 372
challenge 372
material 372
died 371
ders 371
playing 371
absolutely 369
normal 368
access 368
ite 368
bottom 367
changing 367
1 367
running 367
law 367
physical 366
ton 365
res 365
allow 365
hundreds 365
ction 365
developing 365
6@@ 365
individual 364
alone 364
movement 362
uses 362
vision 362
millions 362
creating 362
girls 362
result 362
6 362
shape 362
nobody 361
mb@@ 361
sho@@ 361
deep 361
12 361
modern 361
t-@@ 360
map 360
e-@@ 360
pen@@ 360
ics 360
forms 359
ker 358
and@@ 358
lab 357
cre@@ 357
recently 356
english 356
la 356
bs 355
compassion 355
8@@ 355
development 354
ically 354
bio@@ 354
el 354
focus 353
product 353
web 352
we@@ 351
mental 351
showed 351
9@@ 351
connected 350
stand 350
relationship 350
solution 350
wall 350
9 349
tion@@ 349
designed 348
knows 348
ve@@ 347
major 347
anybody 347
tiny 346
ler 346
fast 346
seem 345
rate 345
industry 345
obviously 345
ying 345
innovation 345
security 345
blood 345
type 345
aren 344
f 344
ent@@ 344
position 344
lines 344
fa@@ 343
box 343
kid 343
dark 343
support 342
soon 342
chinese 342
talked 342
ning 341
generation 341
revolution 341
cool 341
issue 341
bed 340
begin 340
incredibly 340
clear 340
save 339
evolution 339
cr@@ 339
ted@@ 339
especially 339
ap@@ 339
au@@ 339
medical 339
available 339
mat@@ 338
writing 338
haven 337
sting 337
north 336
ended 336
pe 336
em@@ 336
don@@ 336
experiment 336
class 335
becomes 334
online 334
university 334
lived 333
acy 333
effect 333
happiness 333
fla@@ 332
present 332
ev@@ 332
mp@@ 332
25 332
beyond 332
perfect 332
ously 331
explain 331
games 331
ators 330
mer@@ 330
bigger 329
ven@@ 329
cli@@ 329
— 329
late 329
please 329
sk@@ 328
guess 328
ali@@ 328
fied 327
computers 327
star@@ 326
reasons 326
shed 326
ot@@ 326
cal@@ 325
situation 325
5 325
hour 325
resources 325
scientific 324
board 324
drive 324
impact 324
europe 324
fear 324
asking 324
east 323
solve 322
town 322
network 322
putting 322
groups 322
device 322
digital 321
gen@@ 320
dead 320
tells 320
office 320
worth 320
ations 320
ard 319
por@@ 319
materials 319
ob@@ 319
ze 319
rules 318
ou@@ 318
schools 318
ns 317
meet 317
sur@@ 316
vo@@ 316
gt 316
ori@@ 316
baby 315
ants 315
teach 315
nu@@ 315
fully 314
similar 313
pictures 313
lar@@ 313
voice 313
color 313
cur@@ 313
several 312
solar 312
towards 312
special 312
chance 312
micro@@ 311
mal@@ 310
mor@@ 310
general 310
ently 310
quality 310
involved 310
char@@ 310
teachers 310
fall 310
issues 309
activity 309
cri@@ 309
id 309
off@@ 308
particularly 308
wind 308
il 308
risk 308
ble 307
door 307
plants 307
suddenly 307
road 307
ming 307
dly 307
indeed 307
ats 306
projects 306
sounds 306
onto 305
dan@@ 305
break 305
list 304
tur@@ 304
sta@@ 303
ching 303
her@@ 303
ned 303
boy 302
evidence 302
basic 302
robot 302
18@@ 301
speed 301
hundred 301
certainly 301
truth 301
indi@@ 300
carbon 300
eye 300
60 299
tro@@ 299
minute 299
ality 299
nine 299
object 298
listen 298
11 298
message 298
strong 297
village 297
tor@@ 297
anyway 296
talks 296
cro@@ 296
choice 295
wants 295
nor@@ 295
code 295
stay 294
mine 294
positive 294
hit 294
month 293
kes 293
ined 293
moral 292
ss@@ 292
wor@@ 292
examples 291
medi@@ 291
gas 291
college 291
lan@@ 291
bra@@ 290
starts 290
wish 290
walking 290
tives 289
showing 288
smart 288
high-@@ 288
skin 287
ready 287
everywhere 287
reach 287
interest 287
ces 287
ths 287
exciting 287
further 287
pattern 287
notice 286
spread 286
software 286
fire 286
wait 286
cted 285
sses 285
va@@ 284
plan 283
develop 283
totally 283
journey 283
page 283
democracy 283
nuclear 283
biggest 282
measure 282
potential 282
lose 282
follow 282
os 281
extraordinary 281
send 281
add 281
sit 281
likely 281
est 280
199@@ 280
tes 280
moved 280
named 280
cla@@ 280
period 280
mass 279
teacher 279
ably 279
student 279
grew 278
ct@@ 278
ines 278
lies 278
among 278
squ@@ 278
pl@@ 277
bal@@ 277
pick 277
sed 277
ys 276
google 276
ism 276
medicine 276
eventually 275
source 275
hospital 274
poverty 274
ner 274
lead 274
fre@@ 274
arm 274
buildings 273
mission 273
version 273
sent 272
points 272
largest 272
extremely 272
except 272
peace 272
organization 271
approach 271
visual 271
ger@@ 271
jobs 271
cause 271
international 271
dance 271
dr@@ 270
80 270
usually 270
tation 270
cap@@ 270
essentially 270
watching 270
success 270
col@@ 270
fer@@ 270
hiv 270
camera 269
standing 269
tor 269
cy@@ 269
rich 269
fore@@ 269
products 268
sters 268
objects 268
ture 268
continue 268
ges 267
sal@@ 267
tan@@ 267
older 267
alized 267
series 266
0@@ 266
trees 266
results 266
ran@@ 266
david 265
my@@ 265
lea@@ 265
200 265
fin@@ 265
logy 265
foot 265
electricity 264
ki@@ 264
pur@@ 263
somewhere 263
fil@@ 263
spe@@ 263
cru@@ 262
hor@@ 262
inten@@ 262
brains 262
safe 262
sky 262
shi@@ 261
wh@@ 261
explo@@ 261
movie 260
somehow 259
expect 259
shot 258
pping 258
creative 258
sex 258
leaders 257
cate 257
doctor 257
studies 256
ining 256
mom 256
wife 256
models 256
sell 256
press 256
impossible 256
larger 256
thousand 256
cop@@ 256
gener@@ 255
expensive 255
meaning 255
sorts 255
higher 255
hy@@ 254
screen 254
inf@@ 254
shown 254
serious 254
cation 254
crazy 254
tical 254
zing 254
shing 253
african 253
bul@@ 253
appro@@ 253
uni@@ 253
training 253
allowed 253
touch 252
plant 252
above 251
conditions 251
ched 251
site 251
including 251
written 251
finding 251
pieces 251
bas@@ 251
lon@@ 250
beauty 250
mis@@ 250
wal@@ 250
therefore 250
killed 250
cing 249
tree 249
reading 249
str@@ 249
fra@@ 249
traditional 249
stars 249
rise 248
fl@@ 248
income 248
trust 248
excited 248
clu@@ 248
biology 247
production 247
connect 247
ley 247
architecture 247
individuals 247
bacteria 246
pas@@ 246
goal 246
kin@@ 246
supposed 246
taught 246
shes 246
crisis 246
complicated 245
upon 245
dream 245
all@@ 245
truly 245
perspective 245
ed@@ 245
ssed 244
inst@@ 244
drugs 244
families 243
18 243
tool 243
famous 243
violence 243
bodies 242
lower 242
ately 242
active 242
drug 242
favorite 242
uc@@ 242
seconds 242
tre@@ 242
faster 242
healthy 241
fantastic 241
kill 241
down@@ 240
treatment 240
zero 240
role 240
fight 240
tru@@ 240
tically 240
fu@@ 239
communities 239
ct 239
hand@@ 239
region 239
coun@@ 239
math 239
ward 239
content 239
alive 238
himself 238
fine 238
head@@ 238
men@@ 238
et 238
win@@ 238
cking 237
dar@@ 237
neurons 237
ping 236
response 236
ten 236
worse 236
freedom 236
cases 235
successful 235
meant 235
throughout 235
lights 235
range 235
genes 234
humanity 234
invented 234
ben@@ 234
vers 234
although 234
skills 234
non@@ 234
price 233
bunch 233
stic 233
fundamental 233
one-@@ 233
hot 233
service 233
tics 232
sli@@ 232
ea@@ 232
square 232
pain 232
machines 232
ine@@ 232
row 231
kept 231
cul@@ 231
bil@@ 231
western 231
physics 231
sto@@ 231
et@@ 230
dad 230
earlier 230
central 230
military 230
flow 229
clearly 229
mil@@ 229
strange 229
dd@@ 229
beings 229
policy 229
smaller 228
main 228
der@@ 228
recognize 228
allows 228
rights 228
ils 228
concept 228
context 228
fri@@ 227
patterns 227
americans 227
stra@@ 227
familiar 226
waste 226
tend 226
progress 226
van@@ 226
ish 226
choose 226
dri@@ 225
engineering 225
ist 225
tively 225
virus 225
connection 224
store 224
costs 224
record 224
thanks 224
loved 224
massive 224
consider 224
le-@@ 224
listening 224
wonder 224
ner@@ 223
mes 223
anywhere 223
sun@@ 223
solutions 223
current 223
human@@ 223
waiting 223
values 223
greater 222
slow 222
ran 222
actual 222
plastic 222
hey 222
els 222
back@@ 222
treat 222
mer 221
den 221
re-@@ 221
president 221
draw 221
raise 221
ster@@ 221
aid 221
driving 220
pan@@ 220
ized 220
ages 219
provide 219
bits 219
self 219
museum 219
decisions 219
dangerous 218
date 218
dollar 218
critical 218
effective 218
wel@@ 218
magic 218
sy@@ 218
surgery 218
ren@@ 218
v 217
related 217
religion 217
tho@@ 217
sustainable 217
protect 216
none 216
bon@@ 216
remarkable 216
however 216
cou@@ 216
clean 216
san@@ 216
teaching 216
politics 216
yo@@ 216
robots 216
star 216
walked 215
travel 215
comm@@ 215
two-@@ 215
aware 215
conference 215
intelligence 215
whose 215
fuel 215
tv 215
artist 214
nic@@ 214
exist 214
conversation 214
anymore 214
park 213
legs 213
cultural 213
far@@ 213
fy 213
direction 213
bank 213
500 213
becoming 213
train 213
song 213
rule 213
fir@@ 212
hole 212
john 212
tter@@ 212
forest 212
sphere 211
pat@@ 211
ely 211
mit 211
meter 211
understood 211
st-@@ 210
wed 210
5,000 210
scientist 210
glass 210
ah 210
genetic 210
practice 210
ill 210
oper@@ 209
immediately 209
bre@@ 209
floor 209
slide 209
aging 209
pull 209
ited 209
specific 209
ars 209
subject 209
ands 209
increase 208
dog 208
greatest 208
flying 208
itation 208
enormous 207
markets 207
pul@@ 207
equ@@ 207
tic@@ 207
stor@@ 207
function 207
kers 207
cting 207
ens 207
website 207
decade 206
produced 206
cks 206
environmental 206
san 206
phones 206
speaking 206
are@@ 206
tal@@ 206
ff 206
station 205
stre@@ 205
weight 205
cold 205
gri@@ 204
ends 204
serve 204
mars 204
creativity 204
ina 203
feed 203
val@@ 203
performance 203
chemical 203
following 203
sharing 203
forth 203
cho@@ 202
weren 202
ky 202
photograph 202
da 202
air@@ 202
fac@@ 202
forget 202
temperature 202
deli@@ 202
complete 202
minds 202
television 202
forces 202
survive 201
ped 201
various 201
private 201
track 201
flo@@ 201
networks 201
unfortunately 200
ering 200
70 200
useful 200
services 200
sel@@ 200
hea@@ 200
inspired 200
boys 200
clo@@ 199
ny 199
summer 199
unique 199
meters 199
police 199
ites 199
shared 199
ctions 198
types 198
evolved 198
near 198
ative 198
stick 198
ty@@ 198
shor@@ 198
gene 198
ahead 198
ring 198
cover 198
doctors 198
pic@@ 198
gers 198
conflict 198
bringing 197
sign 197
original 197
meeting 197
possibly 197
recent 197
win 197
grade 197
birds 197
path 197
final 196
net 196
passion 196
ads 196
speci@@ 196
helped 196
publi@@ 195
ach 195
funny 195
societies 195
babies 195
trade 195
directly 194
institutions 194
mostly 194
vari@@ 194
90 194
wil@@ 194
effects 194
consciousness 194
discover 193
london 193
levels 193
lie 192
experiments 192
moon 192
ball 192
indian 192
han@@ 192
aids 192
industrial 191
pass 191
cked 191
obvious 191
heat 191
search 191
pers 191
ery 191
genome 191
zed 191
career 190
scre@@ 190
dness 190
financial 190
below 190
radi@@ 190
sorry 190
sat 190
plan@@ 189
neuro@@ 189
era 189
mobile 189
dr. 189
island 189
clin@@ 189
ide@@ 189
ure 189
chi@@ 189
workers 189
bor@@ 188
daughter 188
pt 188
tle 188
att@@ 188
focused 188
poli@@ 188
terrible 187
challenges 187
id@@ 187
bought 187
faces 187
biological 187
ize 187
16 187
governments 187
pes 187
task 186
emotional 186
birth 186
capacity 186
explore 186
ancient 186
nan@@ 186
afghanistan 186
iled 185
eating 185
tal 185
capital 185
willing 185
decide 185
0,000 185
sion@@ 185
bill 185
ian 185
term 185
artists 185
gal@@ 185
laws 185
dre@@ 184
fit 184
played 184
multi@@ 184
decision 184
wood 183
twice 183
communication 183
event 183
instance 183
ta 183
spending 183
turning 183
nation 183
causes 183
bla@@ 183
complexity 182
istic 182
sleep 182
purpose 182
paid 182
stone 182
tou@@ 182
carry 181
straight 181
conver@@ 181
worry 181
balance 181
infrastructure 181
mit@@ 181
popular 181
dying 181
closer 181
anti@@ 181
trial 181
pressure 181
surprising 180
character 180
push 180
slightly 180
chris 180
sm 180
molecules 179
urban 179
ad 179
af@@ 179
dence 179
decades 179
diseases 179
respon@@ 179
gro@@ 178
cer@@ 178
pla@@ 178
ssing 178
cally 178
devices 178
mini@@ 178
tures 178
mel@@ 178
ja@@ 178
-year-old 178
broken 177
calls 177
fun@@ 177
address 177
ll 177
secret 177
tele@@ 177
charge 177
drop 176
cycle 176
$ 176
quick 176
ly@@ 176
hom@@ 176
yed 176
memory 176
300 176
ok@@ 176
tar@@ 176
ess 175
pal@@ 175
significant 175
published 175
est@@ 175
trouble 175
extra 175
tremendous 174
s-@@ 174
degrees 174
supply 174
q@@ 174
prote@@ 174
eri@@ 174
coffee 174
designers 174
california 173
dro@@ 173
citizens 173
ear@@ 173
sis 173
answers 173
10,000 173
gotten 173
app@@ 173
cen@@ 173
passed 172
check 172
race 172
sol@@ 172
worst 172
party 172
apart 172
stu@@ 172
atmosphere 172
blind 172
lets 171
shift 171
justice 171
ble@@ 171
etc 171
ners 171
cts 171
radio 171
creates 171
rooms 171
low-@@ 171
chan@@ 171
flu@@ 171
notion 170
communicate 170
differences 170
mountain 170
improve 170
sia 170
structures 170
hearing 169
foundation 169
tim@@ 169
broad@@ 169
spo@@ 169
2,000 169
noticed 169
pon@@ 169
oxygen 169
bom@@ 169
ambi@@ 168
responsibility 168
phenomenon 168
richard 168
a-@@ 168
rock 168
edge 168
load 167
organisms 167
seemed 167
1,000 167
ial 167
fying 167
nations 167
pra@@ 167
sand 167
fix 166
foun@@ 166
&apos;@@ 166
tors 166
dy@@ 166
new@@ 166
helping 166
geo@@ 166
colleagues 166
eng@@ 166
0s 165
graph 165
work@@ 165
possibility 165
feels 165
corner 165
text 165
electric 165
studying 165
farmers 165
religious 165
standard 165
easily 165
dan 165
hun@@ 165
link 164
nearly 164
necessarily 164
basis 164
gre@@ 164
mp 164
condition 164
programs 164
top@@ 164
ther 164
lic 164
particles 164
achieve 164
cel@@ 164
planets 164
tissue 164
to-@@ 163
eth@@ 163
window 163
organizations 163
year-old 163
painting 163
psycho@@ 163
198@@ 162
profit 162
return 162
gh 162
landscape 162
flight 162
ray 162
figured 162
diversity 162
ay 162
total 162
efficient 162
14 162
pounds 162
hair 162
iraq 161
lar 161
knowing 161
int 161
reduce 161
duc@@ 161
giant 161
bird 161
mark 161
imagination 161
boat 160
ey 160
finished 160
highly 160
lucky 160
rac@@ 160
sla@@ 160
core 160
agree 160
bridge 160
mc@@ 160
asia 160
civil 160
tail 159
distin@@ 159
relationships 159
fair 159
reflec@@ 159
stopped 159
streets 159
flu 159
definition 159
necessary 159
ace 159
choices 159
ssi@@ 158
benefit 158
ctive 158
opportunities 158
contribu@@ 158
engine 158
interact 158
ra 158
dom@@ 158
fication 158
ath@@ 158
leads 157
tex@@ 157
tech 157
hal@@ 157
prison 157
leading 157
differently 157
yellow 157
argument 157
missing 157
pose 157
1.@@ 157
despite 157
inv@@ 157
professor 156
ig@@ 156
aches 156
saving 156
respect 156
ultimately 156
accoun@@ 156
designer 156
obser@@ 156
prize 156
gar@@ 156
gl@@ 156
compe@@ 156
brings 156
members 156
organic 156
bro@@ 156
mur@@ 156
flies 156
bone 156
sites 155
effort 155
moves 155
ful@@ 155
grand@@ 155
ach@@ 155
moments 155
engage 155
gate 155
mps 155
ases 155
throw 155
deci@@ 155
tun@@ 155
attack 155
join 154
mathematics 154
foreign 154
comfortable 154
tin@@ 154
print 154
vel@@ 154
swe@@ 154
noise 154
bru@@ 154
mr. 154
visit 154
comp@@ 154
discovery 153
mid@@ 153
see@@ 153
actions 153
forever 153
inci@@ 153
,000 153
fairly 153
lesson 153
benefits 153
agriculture 153
bread 153
continu@@ 153
emotions 153
person@@ 153
coast 152
helps 152
land@@ 152
held 152
ple@@ 152
nee@@ 152
raised 152
tch 152
brilliant 152
iran 152
ney 152
logists 151
suffering 151
tly 151
extreme 151
13 151
engineers 151
on-@@ 151
conduc@@ 151
well-@@ 150
lled 150
puts 150
ur 150
calcul@@ 150
river 150
fold 150
ir 150
shares 150
apply 150
peri@@ 150
typical 150
slowly 150
ite@@ 150
ow@@ 150
afraid 150
conscious 150
wisdom 150
ha 150
female 149
japan 149
rela@@ 149
counter@@ 149
bees 149
filled 149
responsible 149
billions 149
adap@@ 149
afford 149
matters 149
engineer 149
adults 149
lations 149
sick 149
creatures 149
stem 149
fashion 149
mothers 148
ries 148
facebook 148
pp@@ 148
resi@@ 148
quote 148
degree 148
note 148
liber@@ 148
prin@@ 148
wat@@ 148
elements 148
fighting 148
fields 148
ep@@ 148
od@@ 148
mouse 148
card 148
motion 148
negative 148
alize 148
0-@@ 148
report 147
competition 147
soci@@ 147
capable 147
sch@@ 147
begins 147
ber 147
ory 147
ici@@ 147
fol@@ 147
bel@@ 147
matic 147
fascinating 147
ered 147
walls 147
graphy 147
1,@@ 147
french 147
24 146
sector 146
distance 146
experiences 146
cheap 146
influence 146
easier 146
hopefully 146
vast 146
stream 146
mag@@ 146
wn 146
virtual 146
caught 146
part@@ 146
pun@@ 146
wer 145
respond 145
-up 145
legal 145
leaving 145
196@@ 145
identity 145
loss 145
wild 145
holding 145
ol 145
crime 145
profound 145
traffic 145
ham@@ 145
statistics 145
mom@@ 144
meat 144
shop 144
pac@@ 144
mal 144
din@@ 144
block 144
promise 144
electro@@ 144
ref@@ 144
ath 144
compu@@ 144
british 144
dig@@ 144
base 143
sold 143
heads 143
brother 143
wide 143
enjoy 143
cy 143
sequ@@ 143
pit@@ 143
powered 143
colors 143
gall@@ 143
suit 143
shouldn 142
offer 142
breast 142
trac@@ 142
describe 142
studied 142
investment 142
iting 142
magazine 142
lack 142
speech 142
end@@ 142
bl@@ 142
ie 142
pr@@ 142
ists 142
ought 142
gue 142
otherwise 142
desert 142
importantly 142
trained 142
paint 142
doub@@ 142
invest 142
j 141
ven 141
dreams 141
insects 141
normally 141
arms 141
ne 141
campaign 141
ka 141
fill 140
tionally 140
consumption 140
400 140
lim@@ 140
sudden 140
aling 140
mul@@ 140
galaxy 140
fellow 140
principles 140
therapy 140
sister 140
invisible 140
damage 139
factory 139
wave 139
ca 139
catch 139
placed 139
addi@@ 139
ue 139
economics 139
milli@@ 139
molecule 139
steps 139
everyday 139
wear 139
seriously 139
beat 139
in-@@ 138
civilization 138
professional 138
entirely 138
ai@@ 138
operating 138
cam@@ 138
languages 138
ligh@@ 138
intelligent 138
dry 138
opposite 138
ots 138
transform 138
rid 138
chair 138
spring 137
corre@@ 137
spirit 137
sequence 137
tiv@@ 137
17 137
husband 137
hol@@ 137
labor 137
bb@@ 137
limited 137
aw@@ 137
depression 137
mouth 137
ero@@ 137
circle 137
belief 137
sna@@ 137
events 137
creation 137
warming 137
th-@@ 137
protein 137
airplane 137
ception 137
viruses 136
conta@@ 136
ka@@ 136
keeping 136
plus 136
argue 136
stuck 136
concerned 136
deliver 136
roll 136
photo 136
article 136
omy 136
lands 136
desire 136
visu@@ 136
principle 136
bab@@ 136
ft 135
theater 135
believed 135
qui@@ 135
background 135
acceler@@ 135
managed 135
commercial 135
deeply 135
amp 135
ate@@ 135
spon@@ 135
three-@@ 135
designing 135
co2 135
cations 135
dynamic 135
yesterday 135
male 135
toward 135
wow 135
bin@@ 135
ain 134
oceans 134
ko@@ 134
opened 134
tom@@ 134
mic 134
med@@ 134
whenever 134
institute 134
followed 134
childhood 134
ill@@ 134
intervie@@ 134
bit@@ 134
hate 134
majority 134
predict 134
ology 134
plane 134
na 134
failed 134
laugh@@ 134
ec@@ 134
increasingly 134
temp@@ 134
evil 134
kid@@ 134
logist 133
stan@@ 133
sight 133
driven 133
surprise 133
paul 133
washington 133
generate 133
enter 133
los 133
ack 133
ending 133
ei@@ 133
thinks 133
pages 133
spaces 133
emb@@ 133
physici@@ 133
opening 133
versus 133
ids 133
israel 133
tomorrow 133
acting 132
whom 132
perfectly 132
electrical 132
wealth 132
blin@@ 132
constantly 132
separate 132
ets 132
according 132
wearing 132
charles 132
drawing 131
cognitive 131
due 131
brand 131
farm 131
eli@@ 131
mexico 131
soil 131
ang@@ 131
church 131
rou@@ 131
tran@@ 131
prevent 131
failure 131
apple 131
ced 131
survival 131
fted 131
fourth 131
finger 131
dep@@ 130
currently 130
compare 130
graduate 130
harder 130
spir@@ 130
unless 130
res@@ 130
independent 130
fli@@ 130
define 130
shu@@ 130
photos 130
match 130
dimensions 130
secre@@ 130
ken@@ 130
tan 130
corruption 130
letter 129
producing 129
metaphor 129
slo@@ 129
classroom 129
bar 129
spot 129
arts 129
jump 129
hyper@@ 129
bran@@ 129
ore 129
gging 129
thro@@ 129
tations 129
ordinary 129
kno@@ 129
high@@ 129
o-@@ 129
covered 128
organized 128
random 128
universal 128
tumor 128
experts 128
50,000 128
voices 128
count 128
angle 128
galaxies 128
interven@@ 128
affect 128
suppose 127
gged 127
sor@@ 127
leaves 127
rain@@ 127
rural 127
leadership 127
caused 127
domin@@ 127
invited 127
weird 127
tough 127
equivalent 127
exists 127
treated 127
gain 127
ii 127
worried 127
vie@@ 127
alism 127
investi@@ 127
ant@@ 127
continent 126
artificial 126
email 126
dinner 126
paying 126
our@@ 126
proje@@ 126
distribution 126
signals 126
shapes 126
bing 126
sy 126
compared 126
diagno@@ 126
signal 126
stun@@ 126
dent 126
debate 126
ron@@ 126
japanese 125
thetic 125
hasn 125
direct 125
hur@@ 125
hidden 125
negoti@@ 125
layer 125
cortex 125
holes 125
einstein 125
planning 125
liter@@ 125
businesses 125
weapons 125
european 124
liz@@ 124
chemicals 124
ak 124
valley 124
vehicle 124
ables 124
construction 124
sexual 124
shoes 124
hell 124
represent 124
cular 124
copy 124
ton@@ 124
alization 124
threat 124
appear 124
mate 124
seat 124
muscle 124
neighborhood 124
waves 123
expression 123
acts 123
rational 123
names 123
strategy 123
ge-@@ 123
aries 123
grown 123
mortality 123
described 123
scan@@ 123
than@@ 123
advantage 123
lunch 123
jun@@ 123
camp 123
lady 123
repe@@ 123
bear 123
cloud 123
tens 123
fran@@ 123
highest 123
facts 123
mentioned 123
zes 123
tter 123
malaria 123
proud 122
weather 122
20th 122
collective 122
generations 122
forming 122
vote 122
pot@@ 122
chemistry 122
dinosaurs 122
def@@ 122
feelings 122
houses 122
occu@@ 122
closed 121
ration 121
terri@@ 121
wake 121
irs 121
spi@@ 121
cure 121
dies 121
pol@@ 121
double 121
worldwide 121
sides 121
ences 121
wan@@ 121
britain 121
violent 121
interaction 121
bet 121
heavy 120
minister 120
tioning 120
emerging 120
sky@@ 120
bot@@ 120
losing 120
illu@@ 120
launched 120
sil@@ 120
garden 120
influ@@ 120
survi@@ 120
multiple 120
para@@ 120
ances 120
forced 120
clinical 120
pin@@ 119
chain 119
fat 119
plu@@ 119
oun@@ 119
michael 119
canada 119
jac@@ 119
technical 119
dering 119
associated 119
read@@ 119
mac@@ 119
intellectual 119
45 119
izing 119
pressed 119
ham 119
sum@@ 119
exc@@ 119
player 119
england 119
ams 119
drink 118
molecular 118
infe@@ 118
fell 118
ops 118
leg 118
practical 118
grandmother 118
army 118
abilities 118
conf@@ 118
married 118
interface 118
democratic 118
gold 118
details 118
scen@@ 118
dete@@ 118
library 118
thri@@ 118
collect 118
ination 118
analy@@ 118
teen@@ 118
coral 118
rot@@ 118
killing 118
consequences 118
hall 118
spectrum 118
smell 117
awful 117
department 117
northern 117
mers 117
setting 117
surprised 117
avoid 117
mile 117
regi@@ 117
grand 117
who@@ 117
equal 117
enjo@@ 117
roughly 117
detail 117
location 117
remote 117
movies 117
resource 117
di 117
colum@@ 117
sm@@ 117
steel 117
boun@@ 117
pre-@@ 117
disaster 117
honest 117
letters 117
equipment 117
bright 117
emotion 117
teeth 117
homes 117
trip 117
trials 117
photo@@ 117
hi 117
va 117
selling 116
197@@ 116
studio 116
contact 116
coal 116
inner 116
importance 116
brown 116
joy 116
al-@@ 116
100,000 116
set@@ 116
ement 116
pleasure 116
0 116
cultures 116
leader 116
vit@@ 116
35 116
predi@@ 116
users 116
yer 116
eco@@ 115
logical 115
sw@@ 115
collabor@@ 115
graph@@ 115
cating 115
transformation 115
management 115
soldiers 115
iling 115
accident 115
lessons 115
vation 115
impro@@ 115
rates 115
budget 115
dealing 115
sad 115
van 115
bat@@ 115
tons 115
sty 115
ills 115
ep 115
controlled 115
motiv@@ 115
gram 115
cat@@ 115
hon@@ 115
10@@ 115
prove 115
section 115
feedback 115
kenya 115
spoke 115
affected 115
vot@@ 115
play@@ 115
ans@@ 115
regular 114
ana 114
hadn 114
calling 114
communi@@ 114
swit@@ 114
bus 114
surr@@ 114
essential 114
zz@@ 114
jer@@ 114
kilometers 114
formed 114
colon@@ 114
possibilities 114
reaction 114
stood 114
3,000 114
wards 114
george 114
james 114
nigeria 114
absolute 114
warm 114
ctors 113
17@@ 113
stress 113
productive 113
er-@@ 113
ential 113
researchers 113
rev@@ 113
partner 113
accep@@ 113
phi@@ 113
property 113
long-term 113
reli@@ 113
plate 113
underneath 113
account 113
whereas 113
effectively 113
finish 113
empty 113
australia 113
cated 113
post-@@ 113
fossil 113
chicken 113
shall 113
thoughts 113
adult 112
horse 112
aggre@@ 112
fts 112
rain 112
ier 112
val 112
round 112
arrived 112
struc@@ 112
encoura@@ 112
nervous 112
ef 112
specifically 112
log@@ 112
suggest 112
ards 112
ll@@ 112
prime 112
ased 112
break@@ 112
dest@@ 112
metal 112
cards 112
analysis 112
3d 112
roo@@ 112
vic@@ 112
beach 111
150 111
honor 111
daily 111
wire 111
mathematical 111
radical 111
picked 111
ships 111
mountains 111
pole 111
invention 111
and-@@ 111
reci@@ 111
variety 111
gravity 111
roots 111
transition 111
saved 111
fle@@ 111
cross 111
addition 111
curious 111
imag@@ 111
sharks 111
magnetic 111
program@@ 111
sugar 111
experienced 110
connections 110
breath 110
clock 110
fund 110
status 110
de-@@ 110
demand 110
miss 110
valuable 110
hero 110
existence 110
advanced 110
thomas 110
sources 110
ening 110
by@@ 110
express 110
suggests 110
scene 110
- 110
gift 110
considered 110
cent 110
fewer 110
mix 110
sou@@ 110
union 110
mony 110
organs 110
ization 110
99 110
repli@@ 110
fail 110
que 110
stea@@ 110
appe@@ 110
buying 109
diet 109
mber 109
sa 109
ase 109
stable 109
folks 109
wea@@ 109
relatively 109
goals 109
respe@@ 109
thin@@ 109
smo@@ 109
mon 109
emer@@ 109
techniques 109
evolutionary 109
protection 109
relevant 109
fer 109
characters 109
operate 109
tt@@ 109
hear@@ 109
architect 109
cour@@ 109
ai 109
marine 108
ours 108
lifetime 108
net@@ 108
sets 108
require 108
xi@@ 108
newspaper 108
employees 108
master 108
tent 108
del@@ 108
alternative 108
platform 108
dots 108
scot@@ 108
radiation 108
,@@ 108
method 108
bee@@ 108
2008 108
typically 108
ultra@@ 108
target 108
convince 108
players 108
logic 108
increasing 108
celebr@@ 108
sle@@ 108
fresh 108
via 108
photographs 108
silk 108
sar@@ 107
identify 107
perfor@@ 107
co 107
tual 107
encing 107
ken 107
ze@@ 107
prepared 107
sett@@ 107
bush 107
efficiency 107
testing 107
defined 107
lying 107
reason@@ 107
ium 107
lec@@ 107
quest 107
docu@@ 107
ini@@ 107
explains 107
perception 107
onic 107
stration 107
zo@@ 107
rin@@ 107
axis 107
modi@@ 107
flat 107
swim 107
epidemic 107
awareness 107
tradition 106
winter 106
gly 106
liked 106
green@@ 106
represents 106
illness 106
nasa 106
solved 106
introduced 106
motor 106
wars 106
wra@@ 106
bang 106
factor 106
zone 106
195@@ 106
credit 106
previous 106
darwin 106
sym@@ 106
sentence 106
cast 106
cs 106
sca@@ 106
restaurant 106
diplom@@ 106
ened 106
reward 106
bility 106
theme 105
brea@@ 105
breaking 105
clean@@ 105
ecosystem 105
pacific 105
anti-@@ 105
ingly 105
safety 105
roads 105
replace 105
ounds 105
facing 105
kitchen 105
notes 105
alists 105
disc@@ 105
primary 105
associ@@ 105
vulnerable 105
satis@@ 105
bia 105
tivity 105
aled 105
gan@@ 105
600 105
free@@ 105
wers 105
videos 105
personally 105
defin@@ 105
brothers 105
fishing 105
battery 105
director 104
writer 104
deeper 104
integr@@ 104
definitely 104
dea@@ 104
accept 104
lou@@ 104
ladies 104
bloo@@ 104
dered 104
atory 104
eral 104
ational 104
tured 104
environments 104
stock 104
ama@@ 104
dru@@ 104
risks 104
marketing 104
ser 104
twitter 104
properties 104
hot@@ 104
hop@@ 103
struggle 103
bun@@ 103
driver 103
nor 103
instrument 103
convinced 103
fes@@ 103
diver@@ 103
marriage 103
lat@@ 103
tests 103
unlike 103
appropriate 103
patent 103
gap 103
switch 103
trick 103
strength 103
senses 103
makers 103
mention 103
rel@@ 103
circu@@ 103
exchange 103
mic@@ 103
dogs 103
proteins 103
processes 103
confidence 103
um@@ 103
behaviors 103
tries 103
carrying 102
lock 102
reve@@ 102
wikipedia 102
visible 102
requires 102
sending 102
harvard 102
une@@ 102
naturally 102
cl@@ 102
centers 102
ink 102
preven@@ 102
drew 102
laptop 102
stupid 102
rare 102
wired 102
collapse 102
battle 102
germany 102
generally 102
gest 102
wr@@ 102
cere@@ 102
assi@@ 102
00,000 102
lo 102
eastern 102
portion 102
mistake 102
windows 102
maps 102
wondering 102
blocks 102
mates 102
cooking 102
aring 102
scri@@ 102
roof 102
ented 102
emissions 102
crash 102
politicians 102
ris@@ 102
invent 101
eu@@ 101
introduce 101
alities 101
goods 101
unusual 101
applied 101
components 101
iz@@ 101
click 101
assemb@@ 101
bottle 101
dle 101
supp@@ 101
ph 101
faith 101
lay 101
berg 101
son@@ 101
received 101
biom@@ 101
computing 101
psychology 101
style 101
gy@@ 101
watched 101
expected 101
lin 101
wings 101
gation 101
slu@@ 101
comb@@ 101
tem@@ 101
memor@@ 101
penguins 101
broke 100
gam@@ 100
former 100
stimul@@ 100
poetry 100
acqui@@ 100
served 100
liquid 100
logically 100
pulled 100
carefully 100
aged 100
bubble 100
u.k. 100
hits 100
graphic 100
wise 100
burning 100
rab@@ 100
frame 100
wine 100
stry 100
trillion 100
ssion 100
shark 100
ancestors 100
red@@ 100
sensitive 100
sor 100
pack@@ 99
the-@@ 99
tom 99
string 99
collaboration 99
thre@@ 99
scho@@ 99
compar@@ 99
added 99
manage 99
rely 99
parent 99
frequ@@ 99
grid 99
consumer 99
percentage 99
discussion 99
leg@@ 99
dish 99
sible 99
exploration 99
cont@@ 99
runs 99
electr@@ 99
ories 99
consu@@ 99
grain 99
member 99
tain 99
ani@@ 99
musical 99
infected 99
exercise 99
novel 99
han 99
unit 99
passionate 99
gor@@ 99
atoms 99
males 98
ride 98
mani@@ 98
advan@@ 98
francisco 98
healthcare 98
hospitals 98
gay 98
que@@ 98
gradu@@ 98
cutting 98
path@@ 98
mirror 98
robert 98
tile 98
mistakes 98
rever@@ 98
claim 98
fro@@ 98
empathy 98
laboratory 98
interests 98
brazil 98
destruction 98
ot 98
steve 98
dun@@ 98
arab 98
pollution 97
jam@@ 97
protected 97
hoping 97
-like 97
collec@@ 97
crow@@ 97
user 97
situations 97
75 97
pest 97
cin@@ 97
pil@@ 97
neighbors 97
deser@@ 97
burn 97
display 97
reti@@ 97
sian 97
hil@@ 97
she@@ 97
satellite 97
estimate 97
sophisticated 97
depends 97
gence 97
solving 97
capture 97
colli@@ 97
lit@@ 97
house@@ 97
dropped 97
mas@@ 97
gulf 97
comfort 97
amounts 96
bay 96
milk 96
shel@@ 96
ear 96
three-dimensional 96
peak 96
southern 96
pay@@ 96
dents 96
opinion 96
encourage 96
coordin@@ 96
susta@@ 96
maker 96
medium 96
closely 96
flowers 96
microbes 96
surgeon 96
crowd 96
islam 96
explanation 96
piano 96
embarra@@ 96
activ@@ 96
ager 96
innovative 96
cir@@ 96
hotel 96
pop 96
bo 96
signed 96
entrepreneurs 96
falls 95
sees 95
ske@@ 95
concentr@@ 95
insight 95
inspiration 95
oned 95
inve@@ 95
reached 95
recorded 95
traveling 95
custom@@ 95
overwhel@@ 95
bag 95
youtube 95
adop@@ 95
combine 95
pack 95
alter@@ 95
combination 95
movements 95
ry@@ 95
quanti@@ 95
tracking 95
error 95
ba 95
element 95
story@@ 95
nar@@ 95
vac@@ 95
simul@@ 95
sha 95
absor@@ 94
hurt 94
predat@@ 94
journ@@ 94
chest 94
quiet 94
exam@@ 94
boo@@ 94
scar@@ 94
migr@@ 94
activities 94
15@@ 94
2.@@ 94
gli@@ 94
relative 94
performing 94
pha@@ 94
include 94
meaningful 94
exp@@ 94
philosop@@ 94
jan@@ 94
presentation 94
electronic 94
xim@@ 94
eggs 94
selec@@ 94
forests 94
factors 94
thir@@ 94
stran@@ 94
ind@@ 94
accurate 94
pli@@ 94
2007 94
presence 94
gos 94
2000 94
progre@@ 94
pet 94
shoot 94
sir 94
oring 94
smile 94
singing 94
ultimate 94
ears 93
mble 93
barri@@ 93
ancy 93
transportation 93
execu@@ 93
continued 93
activi@@ 93
dest 93
sunlight 93
inte@@ 93
walks 93
views 93
aspect 93
framework 93
manufac@@ 93
sample 93
suc@@ 93
treating 93
organ 93
black@@ 93
nership 93
ric 93
taste 93
ale 93
linked 93
insul@@ 93
heroes 93
asks 93
apo@@ 93
bi 93
occurred 93
quantum 93
pointed 92
dramatic 92
ess@@ 92
author 92
technological 92
nur@@ 92
manufacturing 92
goo@@ 92
topic 92
educational 92
abled 92
tested 92
cat 92
argu@@ 92
blog 92
falling 92
religions 92
ical 92
wherever 92
cameras 92
collection 92
holds 92
conclusion 92
hydrogen 92
joke 92
lor@@ 92
tape 92
shaped 92
birthday 92
syste@@ 92
ment@@ 92
carto@@ 92
competi@@ 92
conventional 92
shame 92
cable 92
jud@@ 92
simil@@ 92
poly@@ 92
plans 92
ford 92
wo@@ 92
tie 92
operation 91
toler@@ 91
gol@@ 91
coo@@ 91
vin@@ 91
fundamentally 91
lian 91
web@@ 91
correct 91
bones 91
liver 91
u.n. 91
c. 91
release 91
tonight 91
gdp 91
believ@@ 91
economists 91
alist 91
pation 91
post 91
institution 91
band 91
existing 91
teams 91
tar 91
stion 91
fortunate 91
afternoon 91
circumstances 91
enced 91
stronger 91
algorithms 91
vaccine 91
increased 90
gg@@ 90
shake 90
globe 90
thy 90
profes@@ 90
perform 90
invol@@ 90
water@@ 90
attempt 90
mix@@ 90
power@@ 90
mot@@ 90
defense 90
touched 90
disa@@ 90
survey 90
aming 90
eria 90
drives 90
cents 90
abstract 90
tac@@ 90
pollen 90
port@@ 90
stand@@ 90
repor@@ 90
fake 90
seven@@ 90
blu@@ 90
outcome 90
architects 90
renew@@ 90
ever@@ 90
reg@@ 90
ku@@ 90
comman@@ 90
bow 90
auth@@ 90
feeding 89
ctly 89
split 89
ose 89
partners 89
rapidly 89
curve 89
ele@@ 89
sons 89
200@@ 89
depen@@ 89
gun 89
represen@@ 89
gentlemen 89
remind 89
ied 89
detect 89
thin 89
boston 89
funding 89
expand 89
paradigm 89
arab@@ 89
decre@@ 89
expert 89
lun@@ 89
signs 89
fe 89
creature 89
rocket 89
ing@@ 89
swimming 89
assu@@ 89
finance 89
pa 89
golden 89
mathema@@ 89
syn@@ 89
behavioral 89
decline 89
technique 89
pakistan 89
five-@@ 89
court 89
tube 89
pocket 88
adi@@ 88
restri@@ 88
launch 88
enture 88
21 88
physically 88
combined 88
exact 88
dia@@ 88
parking 88
ank 88
nat@@ 88
bert 88
ous@@ 88
boxes 88
volume 88
literature 88
ore@@ 88
clouds 88
illustr@@ 88
fru@@ 88
2010 88
advice 88
measured 88
asse@@ 88
mad 88
lic@@ 88
cky 88
regul@@ 88
som@@ 88
defe@@ 88
aching 88
odd 88
bin 88
gover@@ 88
proto@@ 87
remain 87
internal 87
fel@@ 87
mode@@ 87
sche@@ 87
discus@@ 87
determine 87
vol@@ 87
sweet 87
ener@@ 87
well-being 87
minate 87
features 87
corporate 87
authority 87
congress 87
election 87
constitu@@ 87
agre@@ 87
sation 87
instruments 87
wondered 87
tee 87
sup@@ 87
skill 87
connecting 87
whist@@ 87
regions 87
interpre@@ 87
sustainability 87
gon@@ 87
evening 87
printing 87
staff 87
poses 87
ema@@ 87
bomb 87
acted 87
underwater 87
lau@@ 87
philosophy 87
rup@@ 86
ghts 86
lighting 86
engaged 86
ki 86
challenging 86
dary 86
mod@@ 86
luc@@ 86
applications 86
designs 86
itable 86
ints 86
eness 86
participate 86
dancing 86
keeps 86
inher@@ 86
mented 86
ey@@ 86
ples 86
craft 86
alle@@ 86
records 86
ple 86
dge 86
mechanical 86
narrative 86
doubt 86
options 86
option 86
younger 86
monkeys 86
unclear 86
reference 86
threat@@ 86
polio 86
21st 86
posed 85
clip 85
tious 85
subjects 85
ong 85
climb 85
chicago 85
demonstr@@ 85
embrace 85
help@@ 85
lap@@ 85
september 85
concer@@ 85
fed 85
horrible 85
bike 85
mystery 85
flew 85
.com 85
epi@@ 85
queen 85
fuels 85
figures 85
deaths 85
haiti 85
length 85
selection 85
reverse 85
fingers 85
demo@@ 85
songs 85
german 85
bly 85
transformed 85
largely 85
16@@ 85
sey 85
worlds 85
islands 85
eding 85
poem 85
enable 85
muslim 85
tea 85
sty@@ 84
causing 84
ctor 84
atten@@ 84
channel 84
yl@@ 84
latest 84
stands 84
inspiring 84
admit 84
consi@@ 84
boring 84
ounding 84
raw 84
generated 84
nes@@ 84
messages 84
upper 84
hydro@@ 84
vor 84
gent 84
classic 84
budd@@ 84
unknown 84
aci@@ 84
unexpected 84
vir@@ 84
concrete 84
bacter@@ 84
obsessed 84
nose 84
experim@@ 84
mean@@ 84
simplicity 84
entertainment 84
12@@ 84
dense 84
bes 84
remains 84
gray 84
ef@@ 84
nest 84
mid-@@ 84
housing 84
villages 84
ket 84
component 84
genom@@ 84
plac@@ 84
orities 84
pres@@ 83
busy 83
navi@@ 83
recyc@@ 83
yi@@ 83
60s 83
recei@@ 83
ared 83
common@@ 83
gration 83
ya 83
susp@@ 83
xes 83
70s 83
disgu@@ 83
clothes 83
lish 83
egypt 83
films 83
kar@@ 83
ax@@ 83
directions 83
surve@@ 83
sus 83
soul 83
wireless 83
weigh@@ 83
histor@@ 83
relate 83
concepts 83
nit@@ 83
bal 83
victims 83
cyber@@ 83
conveni@@ 83
suff@@ 83
swa@@ 83
obama 83
cines 83
pen 83
somewhat 83
desper@@ 82
bles 82
scra@@ 82
rhyth@@ 82
loy@@ 82
explained 82
centuries 82
miser@@ 82
title 82
lung 82
deman@@ 82
ority 82
pound 82
clar@@ 82
eld 82
neither 82
zy 82
parti@@ 82
bucks 82
ond 82
faced 82
19th 82
mind@@ 82
celebrate 82
rice 82
phase 82
scan 82
archi@@ 82
released 82
extra@@ 82
potentially 82
danger 82
imple@@ 82
2005 82
collected 82
itarian 82
wl 82
conservation 82
tered 82
functions 82
fire@@ 82
graphics 82
powers 82
frankly 82
africans 82
prices 82
sculpture 82
dolphins 81
oms 81
actors 81
bel 81
fron@@ 81
conversations 81
wheel 81
loyed 81
moun@@ 81
phrase 81
ast@@ 81
paris 81
constant 81
tops 81
civi@@ 81
lers 81
distributed 81
bad@@ 81
symmetry 81
sage 81
neutr@@ 81
telescope 81
rors 81
dings 81
recording 81
multi-@@ 81
mb 81
greenhouse 81
authenti@@ 81
identical 81
chip 81
bol@@ 80
lovely 80
bac@@ 80
resistance 80
actor 80
cook 80
solid 80
rising 80
shut 80
py 80
charity 80
evol@@ 80
gates 80
great@@ 80
gender 80
phili@@ 80
len@@ 80
processing 80
vehicles 80
g-@@ 80
trend 80
obesity 80
compla@@ 80
loop 80
root 80
divided 80
rist 80
mo 80
lake 80
statement 80
occur 80
grows 80
implications 80
zi@@ 80
flower 80
sors 80
pair 80
depend 80
careful 80
surely 80
paintings 80
input 80
swi@@ 80
transl@@ 80
iphone 80
gen 80
papers 80
shoulder 80
proof 80
chapter 80
fat@@ 79
home@@ 79
persu@@ 79
oes 79
woo@@ 79
lest 79
commitment 79
instin@@ 79
intuitive 79
handle 79
consumers 79
clever 79
equation 79
techn@@ 79
co-@@ 79
dead@@ 79
voca@@ 79
trig@@ 79
scrip@@ 79
rations 79
struck 79
exploring 79
kic@@ 79
organism 79
kingdom 79
prepar@@ 79
4,000 79
disorder 79
nel 79
alian 79
four-@@ 79
gps 79
tian 79
crea@@ 79
stayed 79
glu@@ 79
calcu@@ 79
ek 79
classes 79
any@@ 79
tician 79
density 79
russia 79
france 79
clinic 79
required 79
reser@@ 79
introduc@@ 79
list@@ 79
lion 79
infinite 79
spider 79
aud@@ 79
score 79
tat@@ 79
synthetic 79
pros@@ 79
pile 78
arctic 78
immune 78
rhe@@ 78
tall 78
allo@@ 78
sticks 78
automatically 78
genius 78
psych@@ 78
hope@@ 78
measuring 78
agency 78
acked 78
existed 78
exten@@ 78
moder@@ 78
rement 78
quarter 78
economist 78
mess 78
scared 78
dynamics 78
frac@@ 78
ims 78
heli@@ 78
ay@@ 78
joined 78
determin@@ 78
sel 78
extinct 78
interview 78
bell 78
interactive 78
till 78
ast 78
brow@@ 78
vement 78
circuit 78
mechan@@ 78
inations 78
cket 78
pho@@ 78
furniture 78
underst@@ 78
mm 78
cup 78
chose 78
puzzle 78
romantic 78
disorders 78
compos@@ 78
gn@@ 78
dh 78
allowing 78
mechanism 77
desk 77
fam@@ 77
2009 77
dramatically 77
dire@@ 77
clay 77
opposed 77
innov@@ 77
button 77
floo@@ 77
dozen 77
fail@@ 77
div@@ 77
latin 77
vege@@ 77
christmas 77
unk 77
fare 77
foot@@ 77
ply 77
severe 77
march 77
optimistic 77
uganda 77
patho@@ 77
ass 77
cow 77
syl@@ 77
sely 77
ty-@@ 77
pressing 77
eds 77
grass 77
awesome 77
facial 77
arti@@ 77
om 77
physicist 77
dian 77
olu@@ 77
lift 77
candi@@ 77
refer@@ 77
dates 77
zoom 77
symptoms 77
tour 77
embedded 77
pregnant 77
corn 77
loo@@ 77
dict@@ 77
journalist 77
fan 77
space@@ 77
peter 77
chocolate 76
hel@@ 76
sively 76
sized 76
dder 76
half-@@ 76
separ@@ 76
breathe 76
shment 76
hunger 76
arguments 76
productivity 76
recovery 76
providing 76
dee@@ 76
anxi@@ 76
edit@@ 76
herself 76
autism 76
communications 76
slides 76
dot@@ 76
adam 76
vessels 76
tricks 76
ough 76
particle 76
yard 76
mir@@ 76
eigh@@ 76
stations 76
ption 76
remove 76
disp@@ 76
ere 76
false 76
ise 76
attached 76
snow 76
functional 76
happier 76
lessly 76
ld 76
nowhere 76
lized 76
attacks 76
ski@@ 76
monkey 76
20,000 76
carried 76
economies 76
smoke 76
olymp@@ 76
spoken 76
sul@@ 76
texas 75
yo 75
tals 75
acu@@ 75
ade 75
depending 75
cep@@ 75
dur@@ 75
itu@@ 75
ideal 75
dirty 75
corpo@@ 75
gments 75
doors 75
height 75
close@@ 75
poorest 75
collap@@ 75
pure 75
follo@@ 75
plays 75
divide 75
ter-@@ 75
acks 75
tower 75
arian 75
funded 75
anim@@ 75
dust 75
an-@@ 75
microscope 75
laugh 75
oling 75
tus 75
adv@@ 75
orbit 75
pressive 75
letting 75
soft 75
resolution 75
barre@@ 75
mies 75
nai@@ 75
standards 75
friendly 75
frank 75
logi@@ 75
centi@@ 75
congo 75
turing 75
psychiat@@ 75
probability 75
surrounded 75
judge 75
increases 75
passing 74
samples 74
populations 74
whales 74
mics 74
spots 74
grandfather 74
iso@@ 74
by-@@ 74
color@@ 74
appreci@@ 74
savings 74
incentives 74
ound@@ 74
tax 74
outcomes 74
sexu@@ 74
brief 74
indepen@@ 74
ater 74
painful 74
cement 74
intense 74
silence 74
gin@@ 74
palest@@ 74
lifestyle 74
entered 74
scop@@ 74
gy 74
gas@@ 74
velo@@ 74
yn@@ 74
pad 74
truck 74
cock@@ 74
dem@@ 74
whi@@ 74
meetings 74
psychological 74
islamic 74
fifth 74
persi@@ 74
chromo@@ 74
aside 74
prece@@ 74
stop@@ 74
origami 74
hello 74
locked 74
mentally 74
stron@@ 74
translate 74
symme@@ 74
wanting 74
enemy 74
relations 74
ben 74
appreciate 74
legi@@ 74
muslims 74
year-olds 74
tasks 74
sweden 74
toxic 73
00 73
recomm@@ 73
usual 73
pushing 73
bee 73
destroyed 73
promi@@ 73
repair 73
drinking 73
atlantic 73
interestingly 73
agreed 73
affe@@ 73
of@@ 73
reaching 73
19 73
raising 73
u.s 73
cer 73
spiritual 73
secure 73
properly 73
anda 73
so-called 73
astronom@@ 73
frozen 73
regar@@ 73
glo@@ 73
otic 73
tel@@ 73
habitat 73
kni@@ 73
genu@@ 73
disappeared 73
sheep 73
form@@ 73
afterwards 73
hide 73
inspire 73
mainly 73
dless 73
tion-@@ 73
club 73
demon@@ 73
nets 73
session 73
ssive 73
thesis 73
gic 73
telephone 73
weak 73
shooting 73
inclu@@ 73
virtually 73
contin@@ 73
derek 73
floating 72
frighten@@ 72
uri@@ 72
represented 72
citiz@@ 72
ices 72
granted 72
limits 72
motivation 72
champ@@ 72
replac@@ 72
eling 72
balloon 72
stro@@ 72
proce@@ 72
equally 72
offered 72
appears 72
sculp@@ 72
smel@@ 72
precisely 72
democr@@ 72
capit@@ 72
remar@@ 72
muscles 72
ak@@ 72
stly 72
virtu@@ 72
band@@ 72
bible 72
offers 72
voted 72
carb@@ 72
spher@@ 72
orange 72
illegal 72
fiber 72
all-@@ 72
eradi@@ 72
spee@@ 72
itude 72
extent 72
border 72
advertising 72
korea 72
elev@@ 72
degra@@ 72
fall@@ 72
assume 72
wol@@ 72
ounded 72
ye@@ 72
heaven 72
fusion 72
produc@@ 72
links 72
season 72
cau@@ 72
vulnerability 72
tag 72
whale 71
ome@@ 71
seed 71
angry 71
disappear 71
dding 71
academic 71
toilet 71
guil@@ 71
hill 71
six-@@ 71
plenty 71
institu@@ 71
sum 71
diabetes 71
ures 71
adolesc@@ 71
presented 71
retro@@ 71
rwanda 71
mbers 71
appeared 71
27 71
long-@@ 71
manipu@@ 71
dioxide 71
grab 71
rocks 71
drawn 71
breathing 71
abun@@ 71
practices 71
2004 71
hardly 71
feature 71
mping 71
footage 71
accessible 71
viol@@ 71
backwards 71
95 71
script 71
breaks 71
obstac@@ 71
distant 71
quar@@ 71
pool 71
application 71
vations 71
adding 71
port 71
tric 71
fortune 71
jack 71
exhibition 71
formul@@ 71
ald 71
tary 71
diss@@ 71
contrac@@ 71
run@@ 71
fur@@ 71
governance 71
iron 71
lored 71
council 71
catal@@ 71
random@@ 71
illusion 71
photography 71
tragedy 70
fixed 70
ght 70
prefer 70
controlling 70
eye@@ 70
tt 70
life@@ 70
silicon 70
tting 70
subur@@ 70
side@@ 70
contrast 70
maintain 70
mining 70
tied 70
provided 70
fic@@ 70
stitu@@ 70
fit@@ 70
addre@@ 70
dama@@ 70
mri 70
ib@@ 70
suppor@@ 70
overall 70
imp@@ 70
reflect 70
morality 70
agenda 70
cry 70
hypo@@ 70
chart 70
eric 70
copyright 70
millen@@ 70
ght-@@ 70
serving 70
14@@ 70
full-@@ 70
knee 70
dor@@ 70
symbol 70
bby 70
wer@@ 70
behave 70
pler 70
earthquake 70
sity 70
suffer 70
gins 70
educated 70
attemp@@ 70
rus 70
x-ray 70
thrown 70
statisti@@ 70
empha@@ 70
sheet 70
dot 70
l-@@ 70
bed@@ 70
reduction 70
mentation 70
22 70
polar 70
curiosity 70
improvi@@ 70
beer 70
pati@@ 70
ues 70
neuron 70
welcome 70
tas@@ 70
chaos 70
bf 70
labe@@ 69
gather@@ 69
legacy 69
-to-@@ 69
life-@@ 69
prototype 69
philanthro@@ 69
talent 69
wre@@ 69
capitalism 69
enting 69
vely 69
stanford 69
robotic 69
headed 69
ound 69
like@@ 69
vering 69
compli@@ 69
catastro@@ 69
cute 69
some@@ 69
scary 69
insi@@ 69
cent@@ 69
federal 69
fascinated 69
hen@@ 69
athe@@ 69
film@@ 69
spreading 69
gree@@ 69
tab@@ 69
parallel 69
consequence 69
privilege 69
eve 69
january 69
stores 69
positions 69
lev@@ 69
calculate 69
bars 69
od 69
recogn@@ 69
transi@@ 69
succeed 69
provides 69
oldest 69
fif@@ 69
nobel 69
ale@@ 69
frequency 69
contains 69
mou@@ 69
official 69
elephant 69
eleg@@ 69
globalization 69
historical 69
purcha@@ 69
shock 69
blow 69
adapt 69
metabo@@ 69
stru@@ 68
bicycle 68
a.@@ 68
imagined 68
inde@@ 68
bud@@ 68
cle@@ 68
zer@@ 68
license 68
tural 68
shirt 68
seas 68
construct 68
lect 68
apartment 68
destroy 68
customers 68
oxford 68
cosmo@@ 68
theless 68
units 68
but@@ 68
belon@@ 68
golf 68
itory 68
65 68
gon 68
spa@@ 68
pan 68
tiles 68
flip 68
wide@@ 68
linear 68
manhattan 68
irani@@ 68
prof@@ 68
recognized 68
overcome 68
diff@@ 68
orchestra 68
personality 68
priv@@ 68
theore@@ 68
soviet 68
shell 68
lens 68
transforma@@ 68
lab@@ 68
cheaper 68
30s 68
terrorism 68
ghana 68
innovations 68
emergency 68
transparency 68
seats 68
aff@@ 68
constra@@ 68
stat@@ 68
speakers 68
ached 68
poin@@ 68
higgs 68
194@@ 67
includes 67
ppe@@ 67
willi@@ 67
aspi@@ 67
bias 67
aspects 67
2003 67
owned 67
firm 67
reson@@ 67
pus 67
hero@@ 67
bold 67
boards 67
hearts 67
farmer 67
ugly 67
80s 67
univer@@ 67
ridiculous 67
speaker 67
secondly 67
tage 67
industries 67
gather 67
electronics 67
nia 67
determined 67
offic@@ 67
ker@@ 67
extract 67
pir@@ 67
missed 67
opens 67
hang 67
apparently 67
anony@@ 67
critici@@ 67
affordable 67
honest@@ 67
reputation 67
humor 67
martin 67
integrated 67
organize 67
ental 67
describes 67
searching 67
partici@@ 67
microsoft 67
memories 67
conflicts 67
yours 67
amed 67
kets 67
rings 67
inju@@ 67
sports 67
tori@@ 67
demonstrate 67
photographer 67
dependent 67
shy 67
beliefs 67
nap@@ 67
courage 67
suicide 67
dimensional 67
lee 67
sw 67
inch 66
attribu@@ 66
darkness 66
tial 66
poet 66
pace 66
timate 66
produces 66
monitor 66
foods 66
fortunately 66
winning 66
2006 66
drove 66
near@@ 66
develo@@ 66
footprint 66
stors 66
arro@@ 66
loaded 66
ological 66
guaran@@ 66
crying 66
sic 66
guide 66
bli@@ 66
divi@@ 66
lecture 66
involves 66
compan@@ 66
tank 66
landed 66
achieved 66
-of-@@ 66
permanent 66
inje@@ 66
prescri@@ 66
lize 66
transport 66
sugge@@ 66
musicians 66
cker 66
real@@ 66
recognition 66
rer 66
90s 66
cats 66
alizing 66
volunteers 66
dig 66
prototy@@ 66
capita 66
stere@@ 66
dignity 66
gui@@ 66
gang 66
mary 66
happ@@ 66
chimpanzees 66
fic 66
improvement 66
explaining 66
correspon@@ 66
span@@ 66
boundaries 66
collecting 66
dic 66
pione@@ 65
volunte@@ 65
day@@ 65
quarters 65
astonishing 65
trends 65
worker 65
good@@ 65
anthropo@@ 65
removed 65
elsewhere 65
surfaces 65
ion 65
jail 65
thirds 65
tain@@ 65
ulty 65
rush 65
wit@@ 65
propos@@ 65
viral 65
expos@@ 65
layers 65
gran@@ 65
discipl@@ 65
expen@@ 65
dou@@ 65
israel@@ 65
mammals 65
optimi@@ 65
ima@@ 65
accidents 65
heal@@ 65
traveled 65
character@@ 65
nucle@@ 65
anima@@ 65
continues 65
finds 65
contribute 65
text@@ 65
cryst@@ 65
vital 65
output 65
vietna@@ 65
assign@@ 65
facility 65
recep@@ 65
chim@@ 65
super 65
figuring 65
monit@@ 65
ony 65
ques@@ 65
elections 65
lls 65
neural 65
mol@@ 65
harm 65
borders 65
coca@@ 65
tribes 65
diagram 64
polit@@ 64
reduced 64
shore 64
ecosystems 64
stor 64
neighbor 64
likes 64
haw@@ 64
weal@@ 64
engaging 64
fiction 64
hanging 64
dedicated 64
chief 64
right-@@ 64
surprisingly 64
angeles 64
percei@@ 64
alien 64
class@@ 64
assembly 64
hire 64
ethiopia 64
250 64
baseball 64
depressed 64
concern 64
react 64
ts@@ 64
ignore 64
gur@@ 64
premi@@ 64
qualities 64
founded 64
educa@@ 64
volcan@@ 64
achu@@ 64
sp 64
grab@@ 64
mitted 64
sex@@ 64
avi@@ 64
pig 64
excuse 64
poster 64
swee@@ 64
ingredients 64
reported 64
rats 64
evolve 64
palm 64
cele@@ 64
escape 64
pilot 64
rati@@ 64
origin 64
discoveries 64
consume 64
criminals 64
iny 64
colleague 64
amongst 64
saturn 64
gin 64
kins 64
limb 64
ti 64
ese 64
posi@@ 64
ene@@ 64
ooh 64
architectural 64
archy 64
32 63
pyramid 63
pollu@@ 63
mulation 63
constructed 63
trou@@ 63
equi@@ 63
verse 63
categor@@ 63
cambridge 63
emerged 63
plying 63
vable 63
storm 63
presen@@ 63
health@@ 63
cash 63
secon@@ 63
pled 63
23 63
receive 63
n-@@ 63
thick 63
announced 63
laun@@ 63
26 63
extended 63
republi@@ 63
picking 63
ah@@ 63
cap 63
youn@@ 63
consul@@ 63
encounter 63
scratch 63
erian 63
expedi@@ 63
silent 63
2001 63
achie@@ 63
gla@@ 63
returned 63
laid 63
smallpox 63
aircraft 63
nurses 63
articles 63
colony 63
static 63
use@@ 63
tip 63
pulling 63
diverse 63
diving 63
witness 63
lays 63
committed 63
daughters 63
shadow 63
vy 63
separated 63
taining 63
pene@@ 63
lear@@ 63
art@@ 63
dated 63
chosen 63
initial 63
realm 63
cooperation 63
classical 63
pal 63
rescue 63
i.@@ 63
smar@@ 63
preci@@ 63
sand@@ 63
arly 63
intended 63
naked 63
airport 63
jon@@ 63
spectacular 63
laser 63
vagina 63
geographic 63
wheelchair 63
oning 62
func@@ 62
controls 62
predictable 62
underground 62
holi@@ 62
gir@@ 62
autonom@@ 62
diagnosed 62
trau@@ 62
realiz@@ 62
after@@ 62
lig@@ 62
fs 62
identi@@ 62
liberal 62
conve@@ 62
ri 62
vember 62
alex@@ 62
disagre@@ 62
mach@@ 62
disappe@@ 62
conclude 62
distur@@ 62
drill 62
tize 62
biologists 62
super-@@ 62
enz@@ 62
refuge@@ 62
seek 62
ul 62
ethical 62
gent@@ 62
dol@@ 62
obe@@ 62
briefly 62
lete 62
excellent 62
predictions 62
deri@@ 62
frog 62
portra@@ 62
itations 62
alzheimer 62
alled 62
fisher@@ 62
howard 62
stered 62
fathers 62
dear 62
artistic 62
dinosaur 62
underlying 62
process@@ 62
astron@@ 62
ban 62
filter 62
til@@ 62
resilience 62
skep@@ 62
focusing 62
tes@@ 62
contract 62
invite 62
openness 62
extre@@ 62
policies 62
3.@@ 62
rub@@ 62
unlikely 62
vas@@ 62
ison 62
glasses 62
diam@@ 62
mia 62
pain@@ 61
efforts 61
plat@@ 61
ance@@ 61
fabulous 61
hoo@@ 61
tin 61
debt 61
organizing 61
disap@@ 61
tired 61
ville 61
emp@@ 61
nutrition 61
favor 61
jewish 61
emerge 61
accompli@@ 61
strangers 61
observation 61
advi@@ 61
watts 61
fruit 61
reports 61
lling 61
parado@@ 61
alty 61
less@@ 61
rarely 61
mono@@ 61
fal@@ 61
proper 61
u.@@ 61
writers 61
treatments 61
mail 61
florida 61
gathering 61
native 61
dress 61
bags 61
football 61
ician 61
stages 61
adver@@ 61
commit@@ 61
interacting 61
visit@@ 61
inches 61
distr@@ 61
researcher 61
strategies 61
kel@@ 61
simpli@@ 61
universities 61
night@@ 61
globally 61
cates 61
june 61
synthe@@ 61
frontal 61
neuroscience 61
ing-@@ 61
practic@@ 61
habit@@ 61
tici@@ 61
lawyers 61
lions 61
clients 61
engagement 61
thou@@ 61
filling 61
fears 61
shine 61
accumul@@ 60
pump 60
photographed 60
ferti@@ 60
consider@@ 60
particip@@ 60
historic 60
amazon 60
arity 60
route 60
chic@@ 60
tized 60
agricultural 60
,000-@@ 60
senior 60
cession 60
ceptions 60
shifting 60
hat@@ 60
edu@@ 60
opera 60
week@@ 60
gle 60
boom 60
outer 60
instructions 60
anger 60
limit 60
tative 60
sport 60
journal 60
accur@@ 60
trucks 60
ria 60
seeds 60
extrac@@ 60
d. 60
ash 60
interactions 60
killer 60
adopted 60
formal 60
sin 60
stones 60
painted 60
prob@@ 60
devast@@ 60
pointing 60
review 60
occa@@ 60
originally 60
circles 60
beg@@ 60
blogs 60
dges 60
discuss 60
recon@@ 60
asm 60
conven@@ 60
steven 60
hollywood 60
exposed 60
state@@ 60
fluid 60
may@@ 60
smooth 60
gut 60
iel 60
protecting 60
squi@@ 60
sales 60
ves@@ 60
injury 60
sensory 60
hardware 60
concep@@ 60
kable 60
pressions 60
barely 59
tants 59
lia 59
fabric 59
loud 59
subtle 59
plot 59
m. 59
attract 59
fting 59
safe@@ 59
teenagers 59
brain@@ 59
tax@@ 59
honey 59
mun@@ 59
operations 59
sic@@ 59
pink 59
reminded 59
sig@@ 59
vertical 59
ises 59
someday 59
spect@@ 59
tony 59
parties 59
richer 59
rous 59
titudes 59
currency 59
automo@@ 59
ara@@ 59
scopes 59
meal 59
left-@@ 59
flows 59
quot@@ 59
fault 59
terr@@ 59
exclu@@ 59
ph.@@ 59
gonna 59
imaging 59
cheese 59
insurance 59
nurse 59
stroke 59
10-@@ 59
iest 59
live@@ 59
sleeping 59
intrigu@@ 59
climbing 59
succe@@ 59
contr@@ 59
vibr@@ 59
manife@@ 59
located 59
prepare 59
methods 59
gmented 59
peace@@ 59
kilo@@ 59
x-@@ 59
cross-@@ 59
sacred 59
sear@@ 59
open-@@ 59
rolling 59
nine@@ 59
tuna 59
dominant 59
subsi@@ 59
mous 59
jo 59
s. 59
embrac@@ 59
scales 59
mall 59
variation 59
nel@@ 59
tail@@ 59
skull 59
planted 59
ades 59
buried 59
reef 59
spre@@ 59
optimism 59
angiogen@@ 59
depth 59
neighbor@@ 59
hoods 59
kb 59
initiative 58
ena 58
anticip@@ 58
perceive 58
entreprene@@ 58
chron@@ 58
captured 58
visited 58
owner 58
iter@@ 58
abuse 58
pharmaceu@@ 58
bronx 58
ga 58
ino 58
presi@@ 58
regret 58
mice 58
gel 58
schizophren@@ 58
uring 58
800 58
crops 58
qua@@ 58
physi@@ 58
trin@@ 58
domain 58
folding 58
attrac@@ 58
forgotten 58
construc@@ 58
fits 58
micro-@@ 58
crossing 58
asteroid 58
atomic 58
failing 58
straigh@@ 58
anesthe@@ 58
subway 58
upset 58
broo@@ 58
mbling 58
batt@@ 58
obse@@ 58
consciously 58
autom@@ 58
transparent 58
arch@@ 58
analyze 58
revolu@@ 58
-and-@@ 58
worthy 58
essence 58
predicted 58
mely 58
profits 58
lux@@ 58
ury 58
sensors 58
reminds 58
esis 58
hungry 58
let@@ 58
suggesting 58
armed 58
cartoon 58
700 58
promote 58
miracle 58
vacuum 58
midd@@ 58
tility 58
shit 58
trash 58
highway 58
sharp 58
grass@@ 58
characteristics 58
tumors 58
tow@@ 58
spinal 58
prosper@@ 58
abra@@ 58
memes 58
dolphin 57
shots 57
chol@@ 57
antibio@@ 57
ports 57
begun 57
tioned 57
mayor 57
commun@@ 57
mination 57
flexible 57
sures 57
document 57
dations 57
leverage 57
italy 57
administration 57
dor 57
algorithm 57
whatsoever 57
convic@@ 57
emplo@@ 57
teen 57
reducing 57
arth@@ 57
confron@@ 57
syndrome 57
expectancy 57
minated 57
precise 57
programming 57
announ@@ 57
mode 57
suspect 57
nic 57
arrive 57
shelf 57
pursue 57
repeat 57
chri@@ 57
traditions 57
pper 57
instal@@ 57
egyp@@ 57
30,000 57
audio 57
scapes 57
transfer 57
patri@@ 57
1990s 57
sau@@ 57
grandchildren 57
caring 57
surgeons 57
discipline 57
glad 57
cave 57
stops 57
annu@@ 57
occasionally 57
gore 57
stairs 57
expanding 57
cas@@ 57
choo@@ 57
weapon 57
elected 57
pushed 57
edges 57
jellyfish 57
arran@@ 57
measures 57
deta@@ 57
rebuild 57
0.@@ 57
contain 57
mped 57
develop@@ 57
garbage 57
ardo 57
main@@ 57
tracks 57
chairs 57
regu@@ 57
ghtly 57
balls 57
skeleton 57
minim@@ 57
contemporary 57
lawyer 57
uncertainty 57
expectations 57
pulse 57
henry 57
sture 57
revenue 57
symbols 57
sco@@ 57
tap 57
glamorous 57
rio 57
transplant 57
toi@@ 57
scores 57
pod 56
ren 56
spin 56
salt 56
identified 56
1960 56
harvest 56
condi@@ 56
domestic 56
ished 56
ums 56
lethal 56
d.@@ 56
substance 56
dozens 56
accepted 56
silly 56
stewar@@ 56
discovering 56
theories 56
cies 56
host 56
lary 56
bic 56
dilem@@ 56
dimension 56
diffic@@ 56
pleasant 56
eland 56
stance 56
delivered 56
immer@@ 56
collaborative 56
dive 56
sub-@@ 56
extinction 56
shops 56
shelter 56
struggling 56
kee@@ 56
nom@@ 56
earn 56
dation 56
dropping 56
october 56
informed 56
brush 56
kills 56
simulation 56
regime 56
desi@@ 56
smil@@ 56
successfully 56
symbo@@ 56
kev@@ 56
cake 56
rane 56
smith 56
ppy 56
enthusi@@ 56
reform 56
scenari@@ 56
arre@@ 56
pigs 56
light@@ 56
sisters 56
ci 56
ored 56
explosion 56
real-@@ 56
justi@@ 56
rogen 56
uncle 56
replicate 56
phantom 56
conne@@ 56
kle 56
magne@@ 56
ron 56
tears 56
paralyzed 56
nerve 56
wright 56
genocide 56
detection 56
chemi@@ 56
glamour 56
generating 55
concent@@ 55
market@@ 55
mapping 55
vo 55
capability 55
legis@@ 55
intuition 55
yers 55
mingly 55
mines 55
veter@@ 55
affects 55
covering 55
shopping 55
icious 55
loves 55
jim 55
desc@@ 55
ura 55
turkey 55
dia 55
unbelievable 55
olve 55
inevitable 55
favor@@ 55
trajectory 55
sits 55
insights 55
jesus 55
christian 55
hosti@@ 55
hitting 55
1980s 55
garage 55
cher 55
stom@@ 55
occurr@@ 55
prints 55
banks 55
fires 55
threw 55
bats 55
homo 55
author@@ 55
terror 55
ety 55
eded 55
mixed 55
advance 55
realizing 55
mind-@@ 55
fined 55
compassionate 55
differ@@ 55
genetics 55
halluc@@ 55
rose 55
imagery 55
infin@@ 55
nam@@ 55
ith 55
soup 55
puni@@ 55
external 55
partly 55
desh 55
mill 55
abi@@ 55
youth 55
gment 55
concei@@ 55
criminal 55
restaurants 55
edi@@ 55
grams 55
measu@@ 55
aten 55
wider 55
luck 55
bears 55
app 55
50s 55
q 55
slavery 55
p-@@ 55
computation 55
open-source 55
za 55
extend 55
initi@@ 55
agencies 55
sacrif@@ 55
é@@ 55
wei@@ 55
tension 55
mammo@@ 55
-based 54
ert 54
stac@@ 54
dant 54
connects 54
glori@@ 54
cycles 54
perpe@@ 54
entrepreneur 54
peer 54
gated 54
oth 54
expertise 54
bizarre 54
benef@@ 54
garden@@ 54
empower@@ 54
destro@@ 54
habit 54
attitude 54
smarter 54
cious 54
permission 54
description 54
mel 54
panels 54
engineered 54
mechanisms 54
temper@@ 54
ily 54
ency 54
shar@@ 54
poe@@ 54
law@@ 54
proposed 54
mentary 54
stored 54
sale 54
batter@@ 54
entering 54
interpretation 54
devil 54
plug 54
astro@@ 54
bble 54
homework 54
shrimp 54
descri@@ 54
prison@@ 54
inary 54
evalu@@ 54
hus@@ 54
wash 54
mi 54
uti@@ 54
insect 54
rements 54
sni@@ 54
flag 54
ya@@ 54
waters 54
fur 54
methane 54
pitch 54
toy 54
robotics 54
airplanes 54
eda 54
winds 54
moore 54
quali@@ 54
strate@@ 54
28 54
trains 54
ssy 54
sheets 54
tribe 54
ces@@ 54
helicop@@ 54
anni@@ 54
initially 54
org@@ 54
certi@@ 54
jazz 54
85 54
cotton 54
cord 54
resistant 54
confident 54
amate@@ 54
neander@@ 54
ota 53
promised 53
joe 53
dentally 53
stances 53
tale 53
experi@@ 53
amaz@@ 53
boy@@ 53
staying 53
immediate 53
alco@@ 53
alli@@ 53
dom 53
suggested 53
ensure 53
witne@@ 53
controversi@@ 53
ack@@ 53
acking 53
consistent 53
distribu@@ 53
roy@@ 53
sane 53
gely 53
synchron@@ 53
therap@@ 53
conclu@@ 53
dialogue 53
seat@@ 53
rays 53
signature 53
russian 53
expansion 53
professionals 53
ateful 53
matri@@ 53
county 53
inva@@ 53
ignor@@ 53
rying 53
february 53
magnific@@ 53
continuing 53
,500 53
metaph@@ 53
translation 53
leather 53
warning 53
pockets 53
stret@@ 53
viewed 53
analo@@ 53
sually 53
exponential 53
guns 53
civilizations 53
tsunami 53
with@@ 53
ests 53
sub-saharan 53
answered 53
mosquit@@ 53
biodiversity 53
angles 53
gotta 53
washing 53
zi 53
bye 53
odds 53
bob 53
asy 53
ade@@ 53
os@@ 53
mysteri@@ 53
centr@@ 53
supported 53
reliable 53
ste 53
tim 53
taliban 53
cess 53
promot@@ 53
oxytocin 53
icon 53
passenger 53
zero-sum 53
merely 53
rat 53
preserve 52
tant 52
fraction 52
spar@@ 52
biologist 52
charges 52
gradually 52
jet 52
inventing 52
investing 52
enterpri@@ 52
agger@@ 52
tier 52
channels 52
cell@@ 52
breakfast 52
vements 52
facilities 52
stability 52
ora 52
memb@@ 52
ceiling 52
remembered 52
keyboard 52
itting 52
tum 52
bottles 52
fresh@@ 52
builds 52
desp@@ 52
igh@@ 52
motor@@ 52
chil@@ 52
backs 52
pag@@ 52
fung@@ 52
tained 52
ordinarily 52
wheat 52
zan@@ 52
sentences 52
ubiquitous 52
tragic 52
pollin@@ 52
mation 52
pants 52
tled 52
fragile 52
holy 52
encies 52
formation 52
significantly 52
blame 52
prefer@@ 52
primitive 52
district 52
ares 52
elderly 52
glob@@ 52
array 52
rul@@ 52
elementary 52
admini@@ 52
fair@@ 52
reveal 52
1970s 52
bangla@@ 52
improving 52
pandemic 52
classi@@ 52
tissues 52
vegetables 52
primarily 52
leon@@ 52
plain 52
simp@@ 52
requ@@ 52
cig@@ 52
besides 52
enligh@@ 52
ego 52
nowadays 52
bound 52
agent 52
threshold 52
corru@@ 52
dec@@ 52
hypothesis 52
summar@@ 52
thers 52
auto@@ 52
v-@@ 52
terrorists 52
attractive 52
tangible 52
lincoln 52
phosphorus 52
experimental 52
kin 51
ridge 51
ulate 51
expan@@ 51
seas@@ 51
rocke@@ 51
individu@@ 51
drivers 51
handed 51
hip 51
endangered 51
flowing 51
gical 51
kens 51
streng@@ 51
jor@@ 51
incen@@ 51
december 51
interior 51
instantly 51
compre@@ 51
ities 51
igno@@ 51
labs 51
deserve 51
woods 51
concert 51
rele@@ 51
mushroom 51
sac@@ 51
lular 51
ecological 51
pizza 51
fficient 51
comedy 51
agers 51
sim@@ 51
phenomena 51
immen@@ 51
sheph@@ 51
eaten 51
christi@@ 51
sciences 51
restore 51
squee@@ 51
prisoners 51
ologist 51
curriculum 51
teach@@ 51
tempor@@ 51
mines@@ 51
k-@@ 51
yel@@ 51
crucial 51
narra@@ 51
bubbles 51
geometry 51
magn@@ 51
burgh 51
belong 51
nig@@ 51
suck 51
anas 51
acou@@ 51
planes 51
narrow 51
stine 51
johnson 51
established 51
horri@@ 51
-making 51
dressed 51
recru@@ 51
newsp@@ 51
robust 51
30-@@ 51
damn 51
bor 51
bend 51
empire 51
ference 51
friend@@ 51
impacts 51
mich@@ 51
conducted 51
tune 51
pretend 51
hier@@ 51
brian 51
clear@@ 51
plastics 51
translated 51
dictionary 51
idi@@ 51
29 51
rb 51
carol@@ 50
juven@@ 50
genetically 50
nutrients 50
onstage 50
aded 50
fear@@ 50
dal 50
category 50
challeng@@ 50
sibility 50
isolated 50
expecting 50
virgin@@ 50
lihood 50
impression 50
horiz@@ 50
care@@ 50
dawn 50
spl@@ 50
ols 50
cles 50
nutri@@ 50
greek 50
thus 50
fab@@ 50
antly 50
toes 50
delivery 50
photograph@@ 50
gaps 50
spac@@ 50
cosmic 50
rus@@ 50
gorgeous 50
clothing 50
neat 50
tles 50
mbled 50
profoundly 50
sixth 50
minating 50
atic 50
ush 50
check@@ 50
cows 50
dung 50
egg 50
bat 50
dial 50
comment 50
extension 50
dating 50
arguing 50
se-@@ 50
inventor 50
myth 50
lucki@@ 50
wildlife 50
magical 50
vio@@ 50
timat@@ 50
izes 50
fig@@ 50
asing 50
terrain 50
worl@@ 50
anced 50
offici@@ 50
gentleman 50
wind@@ 50
audiences 50
20-@@ 50
documents 50
oty@@ 50
tendency 50
toys 50
finger@@ 50
tories 50
bea@@ 50
testi@@ 50
fibers 50
comic 50
kick 50
rivers 50
quad@@ 50
schol@@ 50
mature 50
delhi 50
kore@@ 50
procedure 50
parliament 50
shanghai 50
reefs 50
reactor 50
roman@@ 50
ro 50
completed 50
entropy 50
prostate 50
puzzles 50
contradi@@ 50
coke 50
ller 50
tubes 50
penguin 50
dopamine 50
canopy 50
rout@@ 50
infection 49
pois@@ 49
rit@@ 49
stephen 49
kne@@ 49
hunting 49
assumption 49
fastest 49
blank 49
bureauc@@ 49
conservative 49
terribly 49
motors 49
tends 49
valu@@ 49
marke@@ 49
tless 49
ject 49
bug 49
apri@@ 49
augu@@ 49
dir@@ 49
rapid 49
supporting 49
wheels 49
trical 49
sta 49
admi@@ 49
broad 49
menting 49
bene@@ 49
altitude 49
summit 49
antarctica 49
sandwich 49
popu@@ 49
printed 49
dam 49
satur@@ 49
opa@@ 49
planetary 49
voy@@ 49
cus 49
phil@@ 49
cuts 49
recover 49
buil@@ 49
occurs 49
tone 49
spea@@ 49
worms 49
lit 49
participants 49
innocent 49
alu@@ 49
obje@@ 49
stics 49
contro@@ 49
academy 49
crack 49
simultaneously 49
av@@ 49
atar 49
nings 49
representation 49
time-@@ 49
remaining 49
mathematicians 49
e.@@ 49
hunt 49
assumptions 49
sour@@ 49
ngos 49
tables 49
objective 49
hong 49
compelling 49
farming 49
wee@@ 49
musician 49
phony 49
demographic 49
profile 49
appearance 49
tackle 49
refer 49
incre@@ 49
fish@@ 49
kie 49
sauce 49
homeless 49
strike 49
comparison 49
closing 49
eleph@@ 49
jumped 49
otechno@@ 49
connectivity 49
boats 49
woke 49
sea@@ 49
database 49
heart@@ 49
frustrated 49
horizon 49
bulb 49
blue@@ 49
portrait 49
flouri@@ 49
analogy 49
inequality 49
ticket 49
precious 49
cancers 49
vity 49
judgment 49
rope 49
gene@@ 49
remained 49
lows 49
koran 49
cylin@@ 49
jihad 49
im 48
abo@@ 48
econom@@ 48
arri@@ 48
peop@@ 48
regre@@ 48
presents 48
cers 48
thu@@ 48
comple@@ 48
kit@@ 48
sci@@ 48
uck 48
ght@@ 48
dow@@ 48
ading 48
len 48
ckets 48
campa@@ 47
paraly@@ 47
ick 47
shir@@ 47
ffe@@ 47
inning 47
ann@@ 47
exhi@@ 47
ind 47
vel 47
prac@@ 47
sof@@ 47
evi@@ 47
meta@@ 47
sop@@ 47
arily 47
ual 47
phan@@ 47
avo@@ 46
phenomen@@ 46
knowle@@ 46
environ@@ 46
kil@@ 46
ggling 46
dic@@ 46
inev@@ 46
soli@@ 46
provi@@ 46
mam@@ 46
camer@@ 45
reco@@ 45
sional 45
cans 45
mush@@ 45
previ@@ 45
neu@@ 45
transpor@@ 45
scope 45
vered 45
invest@@ 45
reven@@ 45
matically 45
cry@@ 45
soldi@@ 45
titude 45
acade@@ 45
gement 45
pical 44
grow@@ 44
yor@@ 44
gies 44
vag@@ 44
ign@@ 44
libr@@ 44
harve@@ 44
vice 44
devi@@ 44
itary 44
sensi@@ 44
earli@@ 44
exi@@ 44
file 44
govern@@ 44
enter@@ 44
fant@@ 44
appli@@ 44
euro@@ 44
bile 44
ong@@ 44
guar@@ 44
austr@@ 44
them@@ 43
cape 43
skele@@ 43
tiz@@ 43
sever@@ 43
philosoph@@ 43
techno@@ 43
oc@@ 43
inven@@ 43
ior 43
pedia 43
nal 43
sal 43
victi@@ 43
verage 43
figh@@ 43
mus@@ 43
missions 43
geor@@ 43
graphi@@ 43
ander@@ 43
tox@@ 42
intri@@ 42
consist@@ 42
alls 42
key@@ 42
remin@@ 42
hard@@ 42
dow 42
é 42
proble@@ 42
aliz@@ 42
ital 42
six@@ 42
empi@@ 42
ope 42
urs 42
fashi@@ 42
conserva@@ 42
selves 42
climb@@ 42
emo@@ 42
surger@@ 42
cogni@@ 41
privile@@ 41
spect 41
temporary 41
espe@@ 41
itual 41
industri@@ 41
sen 41
reas@@ 41
signific@@ 41
fossi@@ 41
dat@@ 41
curr@@ 41
won@@ 41
achiev@@ 41
osa@@ 41
eg@@ 41
shoul@@ 41
kly 41
gun@@ 40
defen@@ 40
kness 40
olved 40
congre@@ 40
chur@@ 40
atures 40
oce@@ 40
cess@@ 40
oni@@ 40
beauti@@ 40
steri@@ 40
alo@@ 40
pression 40
four@@ 40
fr@@ 40
phy@@ 40
keys 40
prev@@ 40
world@@ 40
writ@@ 40
opini@@ 40
fav@@ 40
artic@@ 39
wonder@@ 39
labor@@ 39
itely 39
bir@@ 39
inse@@ 39
chap@@ 39
isla@@ 39
perfe@@ 39
lli@@ 39
mor 39
infra@@ 39
sav@@ 39
ell 39
geni@@ 39
py@@ 39
dam@@ 39
ods 39
sit@@ 39
enor@@ 39
icial 39
year@@ 39
intro@@ 39
ve-@@ 38
osity 38
alia 38
materi@@ 38
liar 38
+ 38
reduc@@ 38
cil 38
ami 38
tually 38
pathy 38
princi@@ 38
sics 38
deter@@ 38
com 38
ularly 38
press@@ 38
explor@@ 38
satellit@@ 38
treat@@ 38
yea@@ 38
epide@@ 37
pregn@@ 37
extr@@ 37
volu@@ 37
base@@ 37
resc@@ 37
inging 37
trav@@ 37
ror 37
me-@@ 37
sequences 37
know@@ 37
acci@@ 36
xed 36
ada 36
brit@@ 36
resear@@ 36
rais@@ 36
stery 36
recor@@ 36
auton@@ 36
tane@@ 36
scienti@@ 36
john@@ 36
gency 36
ingredi@@ 36
tism 36
organiz@@ 36
unity 36
connec@@ 36
abstr@@ 36
chimpanze@@ 36
intui@@ 36
mirac@@ 35
convin@@ 35
establi@@ 35
beha@@ 35
brilli@@ 35
ature 35
vid 35
compas@@ 35
vul@@ 35
stant 35
manu@@ 35
tory 35
open@@ 35
oran@@ 35
adverti@@ 35
stein 35
struction 35
contex@@ 35
wear@@ 35
cali@@ 35
low@@ 35
instruc@@ 35
bic@@ 35
deb@@ 35
tains 35
ss-@@ 34
democra@@ 34
appropri@@ 34
quic@@ 34
ross 34
sug@@ 34
licen@@ 34
explan@@ 34
esti@@ 34
mas 34
ssa@@ 34
cke@@ 34
ee@@ 34
atlan@@ 34
commerci@@ 34
invent@@ 34
resili@@ 34
hall@@ 34
circum@@ 34
ston 34
00@@ 33
come@@ 33
asure 33
dynam@@ 33
deep@@ 33
fically 33
meas@@ 33
requi@@ 33
of-@@ 33
counter 33
flexi@@ 33
audi@@ 33
ox@@ 32
ama 32
resul@@ 32
tribu@@ 32
hood 32
opti@@ 32
geous 32
estab@@ 32
sam@@ 32
wheel@@ 32
deca@@ 32
small@@ 32
adul@@ 32
seri@@ 32
zero-@@ 32
mism 32
envi@@ 32
entially 32
expon@@ 32
rich@@ 32
answer@@ 32
trage@@ 32
astero@@ 32
rat@@ 32
orchestr@@ 31
kilome@@ 31
impli@@ 31
dows 31
appar@@ 31
inspi@@ 31
ji@@ 31
clou@@ 31
atmo@@ 31
technologi@@ 31
vil@@ 31
lywood 31
bers 31
volun@@ 31
bage 31
curi@@ 30
employ@@ 30
chea@@ 30
phot@@ 30
mea@@ 30
comfor@@ 30
origin@@ 30
effici@@ 30
sahar@@ 30
ware 30
easi@@ 30
ballo@@ 30
intel@@ 30
through@@ 30
success@@ 30
bilities 30
terrori@@ 30
aria 30
tish 30
insur@@ 30
rememb@@ 30
eting 30
ternal 30
lars 30
ris 29
gul@@ 29
braz@@ 29
oral 29
exist@@ 29
muse@@ 29
ousness 29
exerci@@ 29
vis@@ 29
now@@ 29
metho@@ 29
affor@@ 29
auc@@ 29
electri@@ 29
issu@@ 29
hundre@@ 29
perspe@@ 29
drin@@ 29
ull 29
beli@@ 29
magaz@@ 29
tradi@@ 28
expec@@ 28
iness 28
notic@@ 28
child@@ 28
mosqu@@ 28
coura@@ 28
dedi@@ 28
sign@@ 28
big@@ 28
one@@ 28
stan 28
esthe@@ 28
tality 28
bust 28
controver@@ 28
rough@@ 28
ctively 28
wom@@ 28
frustr@@ 28
diag@@ 28
des@@ 28
astic 28
wis@@ 27
elds 27
tionary 27
sically 27
you@@ 27
cred@@ 27
enty 27
puzz@@ 27
ult 27
geome@@ 27
efully 27
business@@ 27
mr@@ 27
thous@@ 27
nega@@ 27
etary 27
foc@@ 27
paki@@ 27
iti 27
forma@@ 27
gile 27
fas@@ 27
angel@@ 27
atom@@ 27
nex@@ 26
tot@@ 26
efs 26
shou@@ 26
nas@@ 26
spin@@ 26
tabo@@ 26
anding 26
ogen@@ 26
bron@@ 26
ign 26
confli@@ 26
sual 26
olutionary 26
valent 26
scul@@ 26
accu@@ 25
tack@@ 25
rand@@ 25
ira@@ 25
effe@@ 25
scrat@@ 25
colle@@ 25
villa@@ 25
capac@@ 25
21@@ 25
poo@@ 25
afri@@ 25
reme@@ 25
ques 25
king@@ 25
dency 24
anci@@ 24
sue 24
aca@@ 24
conser@@ 24
ech@@ 24
tali@@ 24
refu@@ 24
immun@@ 24
automa@@ 24
spec@@ 24
ington 24
extin@@ 24
jour@@ 24
stati@@ 24
ich 24
ram 24
hospit@@ 24
datab@@ 24
accor@@ 24
dden 23
performan@@ 23
bicy@@ 23
ffici@@ 23
perman@@ 23
tica 23
socie@@ 23
taneously 23
excell@@ 23
tremend@@ 23
shop@@ 23
ural 23
marri@@ 23
á@@ 23
rought 23
other@@ 23
grou@@ 23
vide@@ 23
swim@@ 23
unex@@ 23
intellec@@ 23
dp 23
dece@@ 23
tech@@ 22
awar@@ 22
meaning@@ 22
certainty 22
vail@@ 22
christ@@ 22
relev@@ 22
scape 22
paralle@@ 22
jel@@ 22
cially 22
oxide 22
ility 22
earth@@ 22
jury 22
ggle 21
instru@@ 21
natur@@ 21
astoni@@ 21
inno@@ 21
cot@@ 21
fami@@ 21
isol@@ 21
employe@@ 21
f-@@ 21
patter@@ 21
where@@ 21
mista@@ 21
muc@@ 21
oly@@ 21
cei@@ 21
financi@@ 21
dise@@ 21
avail@@ 21
k. 21
stern 21
een 21
hou@@ 21
nuc@@ 21
thal 21
ules 20
zz 20
maj@@ 20
consum@@ 20
corpor@@ 20
unti@@ 20
profession@@ 20
sities 20
ouri@@ 20
ood 20
oxy@@ 20
twit@@ 20
dop@@ 20
oppos@@ 20
onics 20
peac@@ 20
achi@@ 20
was@@ 20
europe@@ 20
surpri@@ 20
olds 20
prou@@ 20
mption 20
dable 20
rene@@ 19
tee@@ 19
ridicul@@ 19
nels 19
weir@@ 19
predict@@ 19
artif@@ 19
sent@@ 19
passen@@ 19
ulous 19
gaz@@ 19
pie@@ 19
oting 19
birth@@ 18
hic@@ 18
cyc@@ 18
lef@@ 18
fundam@@ 18
symp@@ 18
phra@@ 18
cos@@ 18
civiliz@@ 18
ado@@ 18
tum@@ 18
wiki@@ 18
wash@@ 18
gap@@ 18
even@@ 18
sophi@@ 18
exhibi@@ 18
solu@@ 17
alg@@ 17
algorith@@ 17
ength 17
timately 17
awe@@ 17
paradig@@ 17
copy@@ 17
) 17
poun@@ 17
contra@@ 17
psy@@ 17
resour@@ 17
weapon@@ 17
deva@@ 17
tol@@ 17
pharmac@@ 17
got@@ 17
face@@ 17
crimin@@ 17
rhy@@ 16
what@@ 16
paint@@ 16
acces@@ 16
tivi@@ 16
norm@@ 16
zar@@ 16
pret@@ 16
ition 16
bure@@ 16
ridi@@ 16
cule 16
situ@@ 16
sophisti@@ 16
phen@@ 16
ameri@@ 16
000 16
feed@@ 16
incenti@@ 16
robo@@ 16
ead 16
disor@@ 16
chen 16
hren@@ 16
distri@@ 16
tely 15
messa@@ 15
organ@@ 15
fren@@ 15
ament 15
acher 15
rapi@@ 15
wild@@ 15
disco@@ 15
ecu@@ 15
% 15
intellig@@ 15
elec@@ 15
enly 15
wire@@ 15
hosp@@ 15
mana@@ 15
lightly 15
aly 15
tis@@ 15
itous 15
joh@@ 15
tract 15
call@@ 15
ould 15
diabe@@ 15
icide 15
whe@@ 15
fortun@@ 14
pover@@ 14
antici@@ 14
dialo@@ 14
studi@@ 14
ano 14
sev@@ 14
unbeliev@@ 14
@ 14
ctory 14
ö@@ 14
gible 14
sustain@@ 14
cruci@@ 14
stero@@ 14
repu@@ 14
… 14
ordin@@ 14
sat@@ 14
– 14
ried 14
indu@@ 14
so-@@ 13
mour 13
ethiop@@ 13
curren@@ 13
truc@@ 13
í@@ 13
necess@@ 13
# 13
pande@@ 13
travel@@ 13
cine 13
confi@@ 13
tainment 13
dimen@@ 13
exac@@ 13
chro@@ 13
phar@@ 13
crete 13
earthqua@@ 13
mamm@@ 13
thes 12
ership 12
tril@@ 12
desig@@ 12
sco 12
chemic@@ 12
ó@@ 12
coffe@@ 12
dn 12
rw@@ 12
erci@@ 12
ree 12
fascin@@ 11
pleas@@ 11
feder@@ 11
rif@@ 11
mexic@@ 11
religi@@ 11
intu@@ 11
arra@@ 11
appear@@ 11
kor@@ 11
pyrami@@ 11
= 11
nerv@@ 11
lem@@ 11
isms 11
eping 11
bef@@ 11
anthro@@ 11
angers 11
shri@@ 11
chocol@@ 10
zen 10
oci@@ 10
effor@@ 10
afgh@@ 10
mole@@ 10
è@@ 10
bubb@@ 10
frigh@@ 10
frame@@ 10
sels 10
expe@@ 10
clas@@ 10
doz@@ 10
dist@@ 10
parli@@ 10
noon 10
sory 10
augh@@ 10
paci@@ 10
angha@@ 10
americ@@ 10
ug@@ 10
tex 10
lease 10
lead@@ 9
stud@@ 9
year-@@ 9
yor 9
cata@@ 9
traje@@ 9
duce 9
partment 9
jects 9
agri@@ 9
lities 9
danger@@ 9
figu@@ 9
cept 9
( 9
centu@@ 9
nei@@ 9
morous 9
uro@@ 9
ü@@ 9
gory 9
ony@@ 9
hous@@ 9
ild 9
meth@@ 9
genoci@@ 9
thane 9
hind 8
your@@ 8
cle 8
entally 8
opy 8
behavi@@ 8
cin 8
feel@@ 8
camb@@ 8
slow@@ 8
ught 8
ä@@ 8
conversa@@ 8
aly@@ 8
phosp@@ 8
aga@@ 8
bots 8
symptom@@ 8
ouse 8
certain@@ 8
inese 8
curricul@@ 7
vices 7
_ 7
thom@@ 7
angi@@ 7
secur@@ 7
percen@@ 7
raid 7
vacu@@ 7
uss 7
staf@@ 7
ales 7
,00@@ 7
steph@@ 7
^ 7
pment 7
tissu@@ 7
singly 7
immedi@@ 7
ubiqu@@ 7
tice 7
piz@@ 7
eric@@ 7
ester@@ 6
faste@@ 6
vulner@@ 6
discover@@ 6
neur@@ 6
unexpe@@ 6
langu@@ 6
architec@@ 6
beau@@ 6
primar@@ 6
ã@@ 6
dopam@@ 6
expect@@ 6
flori@@ 6
micha@@ 6
has@@ 6
degre@@ 6
ricul@@ 6
imer 6
wich 6
agen@@ 6
cisco 6
n. 6
brief@@ 6
ide 6
consci@@ 5
ê@@ 5
disci@@ 5
í 5
tsun@@ 5
omen@@ 5
minu@@ 5
isra@@ 5
phosphor@@ 5
ç@@ 5
sionally 5
pically 5
arely 5
entro@@ 5
derly 5
mple 5
terror@@ 5
techni@@ 5
cently 5
transpar@@ 5
primi@@ 5
istics 5
califor@@ 5
him@@ 5
stantly 5
jelly@@ 5
vehic@@ 5
อ@@ 5
pid 4
protot@@ 4
schizop@@ 4
titu@@ 4
ein@@ 4
complex@@ 4
silic@@ 4
pon 4
ight 4
aper 4
gagement 4
ñ@@ 4
tise 4
goti@@ 4
gnity 4
bizar@@ 4
lesc@@ 4
toge@@ 4
capes 4
happen@@ 4
cate@@ 4
endanger@@ 4
liqu@@ 4
embed@@ 4
estic 4
every@@ 4
ticians 4
frien@@ 4
enge 4
sep@@ 4
sub-sahar@@ 4
* 4
rami@@ 4
â 4
 4
 4
yester@@ 4
quan@@ 4
iop@@ 4
opport@@ 4
pox 3
econ@@ 3
mised 3
syndro@@ 3
mptions 3
incredi@@ 3
spiring 3
proper@@ 3
olution 3
relation@@ 3
partic@@ 3
² 3
indivi@@ 3
ø@@ 3
entre@@ 3
meet@@ 3
ā@@ 3
absolu@@ 3
dolph@@ 3
profoun@@ 3
sionate 3
rote 3
gami 3
à 3
hatt@@ 3
heimer 3
dinosa@@ 3
possi@@ 3
ggs 3
research@@ 3
£ 3
..@@ 3
octo@@ 3
lecules 3
tware 3
betw@@ 3
eful@@ 3
ada@@ 3
celer@@ 3
ร 3
่ 3
harv@@ 3
ë@@ 2
japan@@ 2
ô@@ 2
faci@@ 2
philo@@ 2
â@@ 2
ï@@ 2
innova@@ 2
obvi@@ 2
mote 2
chimp@@ 2
è 2
amoun@@ 2
does@@ 2
ú@@ 2
furnit@@ 2
€ 2
viet@@ 2
送@@ 2
你@@ 2
葱 2
surge@@ 2
unities 2
mathe@@ 2
acular 2
interest@@ 2
gentle@@ 2
compon@@ 2
else@@ 2
otech@@ 2
ă@@ 2
ť 2
arc@@ 2
ē 2
ย@@ 2
ย 2
mend@@ 2
pare 2
jap@@ 2
ubi@@ 2
archite@@ 2
\ 2
chall@@ 2
trum 2
boundar@@ 2
ć 2
/@@ 1
)@@ 1
*@@ 1
ē@@ 1
อ 1
&@@ 1
ï 1
ó 1
£@@ 1
送 1
ø 1
ā 1
$@@ 1
\@@ 1
@@@ 1
ä 1
à@@ 1
^@@ 1
ร@@ 1
:@@ 1
€@@ 1
(@@ 1
ç 1
?@@ 1
你 1
& 1
ã 1
%@@ 1
葱@@ 1
+@@ 1
!@@ 1
ć@@ 1
ö 1
—@@ 1
ú 1
ü 1
ô 1
@@ 1
…@@ 1
=@@ 1
á 1
ê 1
;@@ 1
²@@ 1
@@ 1
_@@ 1
–@@ 1
่@@ 1
ă 1
ë 1
ñ 1
#@@ 1
ť@@ 1
