, 191366
. 161763
the 134709
and 96681
to 78772
of 73794
a 70863
that 59874
i 53845
in 51605
it 49475
you 45800
is 42169
we 42022
&apos;s 36496
this 32250
so 23552
&quot; 22867
they 21066
was 19121
-- 18926
for 18907
on 18521
are 17950
have 17302
what 17025
but 16796
with 15948
can 15344
? 14217
&apos;t 14070
about 13691
there 13605
as 13277
at 13205
be 12854
all 12490
do 11745
not 11572
one 11457
an 11130
&apos;re 10920
my 10918
people 10668
if 10233
like 10074
from 10068
he 9662
or 9544
now 9304
these 9017
just 8964
our 8648
: 8418
because 8221
when 8212
very 8192
me 7963
out 7896
by 7743
how 7739
know 7404
them 7303
up 7281
going 7184
which 6913
more 6741
here 6728
think 6719
had 6714
see 6622
us 6385
who 6384
your 6321
re@@ 6300
really 6293
their 6188
get 6178
would 6085
then 6077
were 6048
&apos;ve 5922
world 5766
some 5729
time 5619
&apos;m 5574
has 5368
way 5336
don 5311
actually 5305
into 5192
where 5053
things 4970
go 4897
will 4874
years 4872
-@@ 4695
other 4690
no 4590
well 4537
could 4504
want 4447
make 4315
been 4256
said 4255
right 4219
she 4086
a@@ 4052
something 4040
first 3852
two 3828
s@@ 3803
than 3802
those 3794
ing 3743
his 3742
look 3739
d@@ 3699
thing 3693
in@@ 3676
little 3652
new 3610
got 3596
t@@ 3573
also 3559
much 3519
ed 3491
back 3453
life 3450
say 3427
; 3386
most 3373
over 3345
work 3333
es 3303
e@@ 3243
even 3235
only 3235
g@@ 3181
take 3156
k@@ 3145
kind 3141
many 3073
p@@ 3063
did 3007
di@@ 2999
need 2977
lot 2967
ted 2964
good 2932
de@@ 2919
un@@ 2888
o@@ 2869
around 2868
why 2844
let 2819
al 2818
down 2817
able 2814
&apos;ll 2769
use 2765
e 2747
come 2714
s 2696
b@@ 2695
different 2692
every 2686
through 2665
en@@ 2661
i@@ 2615
her 2615
its 2614
t 2610
day 2570
er 2513
same 2479
put 2476
being 2413
doing 2399
u@@ 2375
y 2331
y@@ 2317
ti@@ 2301
three 2279
li@@ 2266
al@@ 2262
m@@ 2243
con@@ 2243
called 2242
co@@ 2238
any 2204
ate 2195
an@@ 2183
made 2157
percent 2157
le@@ 2154
ri@@ 2153
talk 2150
&apos;d 2145
ro@@ 2123
o 2115
ca@@ 2104
today 2079
ar@@ 2068
great 2061
ts 2055
after 2055
se@@ 2017
ated 2014
be@@ 2007
tell 1995
lo@@ 1982
m 1968
year 1967
human 1960
c@@ 1929
big 1923
fact 1918
another 1914
find 1910
last 1906
own 1877
f@@ 1875
idea 1856
ly 1853
r@@ 1852
didn 1831
ma@@ 1828
before 1826
change 1826
give 1821
went 1800
should 1797
started 1785
thought 1775
ers 1775
sh@@ 1772
po@@ 1754
st 1750
st@@ 1737
end 1737
l@@ 1732
off 1722
p 1721
si@@ 1718
story 1707
it@@ 1702
v@@ 1700
g 1695
never 1688
pro@@ 1682
better 1679
important 1679
again 1679
less 1678
course 1674
bit 1667
show 1650
system 1641
ting 1634
him 1628
does 1627
problem 1622
start 1619
next 1609
might 1608
d 1606
each 1602
still 1600
together 1599
used 1598
man 1598
part 1597
or@@ 1593
place 1592
ago 1590
se 1590
la@@ 1588
n@@ 1585
brain 1579
technology 1578
at@@ 1576
came 1569
ha@@ 1563
thank 1560
im@@ 1555
ta@@ 1552
me@@ 1549
mi@@ 1548
h@@ 1532
long 1528
ds 1515
water 1507
&apos; 1500
between 1480
few 1471
looking 1467
too 1459
k 1459
er@@ 1455
w@@ 1455
z@@ 1451
red 1450
point 1442
ch@@ 1441
ded 1441
as@@ 1439
mean 1438
children 1433
th@@ 1433
ex@@ 1432
tions 1427
am 1420
j@@ 1409
ne@@ 1404
sort 1402
maybe 1398
done 1395
ating 1391
mo@@ 1384
found 1374
bo@@ 1369
try 1366
question 1360
love 1355
pe@@ 1354
whole 1352
doesn 1351
school 1347
data 1342
on@@ 1341
tion 1341
le 1340
l 1339
ac@@ 1332
example 1330
ra@@ 1327
understand 1324
may 1319
wanted 1319
ent 1315
ous 1315
ab@@ 1311
four 1305
ever 1299
pre@@ 1298
real 1288
working 1285
n 1285
using 1284
call 1283
ding 1276
live 1273
million 1270
trying 1264
el@@ 1257
women 1254
su@@ 1249
away 1245
light 1233
mar@@ 1231
money 1230
person 1229
power 1229
age 1229
10 1224
everything 1222
always 1218
kids 1218
am@@ 1213
sp@@ 1211
ad@@ 1208
believe 1208
to@@ 1203
feel 1196
five 1194
design 1185
de 1177
country 1171
space 1169
help 1168
vi@@ 1166
b 1165
ation 1160
side 1150
no@@ 1149
c 1148
min@@ 1144
thinking 1142
number 1141
comes 1140
create 1139
bi@@ 1135
bu@@ 1131
times 1130
ks 1129
took 1127
car@@ 1124
second 1124
ter 1120
information 1120
old 1113
energy 1108
food 1103
means 1100
king 1098
making 1093
sense 1093
op@@ 1092
gu@@ 1091
! 1082
ve 1081
ge@@ 1079
getting 1078
future 1075
become 1072
quite 1071
enough 1066
do@@ 1063
ant 1056
best 1056
small 1055
science 1054
says 1053
probably 1052
building 1049
als 1041
room 1040
ol@@ 1037
ic 1027
without 1027
city 1027
ine 1025
home 1022
play 1019
left 1013
interesting 1010
stuff 1010
social 1005
body 1004
talking 1004
th 1003
pi@@ 1001
hi@@ 998
gra@@ 995
sa@@ 990
ways 986
x 985
coming 983
africa 983
happened 982
ity 981
ally 980
ans 977
earth 975
trans@@ 971
set 966
ver@@ 964
dollars 964
ho@@ 959
build 957
20 952
led 950
half 950
ask 949
anything 945
ability 945
tic 941
pa@@ 941
ment 933
ies 931
goes 930
while 930
seen 927
line 923
ves 923
simple 922
pretty 921
makes 921
lives 918
move 916
.@@ 915
sion 915
told 914
com@@ 913
across 911
fi@@ 910
les 910
te@@ 908
case 905
sc@@ 904
per@@ 904
once 904
happen 902
3@@ 901
ur@@ 901
per 901
such 899
ling 898
living 897
basically 895
par@@ 894
2@@ 894
tu@@ 894
der 890
saw 890
is@@ 888
ance 888
men 886
else 885
project 885
book 884
health 881
car 881
na@@ 881
imagine 879
yet 879
ses 876
ke 876
picture 874
moment 872
hand 871
countries 870
days 869
happens 867
ir@@ 866
bad 864
te 863
il@@ 861
having 860
man@@ 860
tra@@ 860
form 858
care 857
inter@@ 856
pu@@ 854
okay 854
pri@@ 854
family 853
experience 847
ni@@ 846
hard 845
asked 843
problems 841
global 840
later 839
tive 837
ary 835
ideas 833
high 832
learn 831
dis@@ 831
oh 831
sure 830
land 829
ok 829
young 828
tri@@ 827
nature 827
computer 826
50 825
tr@@ 821
es@@ 818
inside 814
ju@@ 813
mon@@ 811
the@@ 811
business 811
ms 810
planet 807
everybody 805
six 803
he@@ 802
qu@@ 801
process 801
history 798
for@@ 797
reason 795
art 795
so@@ 795
saying 794
son 794
states 793
ge 793
nothing 792
both 791
ls 782
child 781
single 780
whether 779
almost 778
within 778
cu@@ 777
ps 775
looks 774
4@@ 772
far 771
cells 771
billion 769
ter@@ 768
mind 767
top 766
already 763
bring 762
wrong 761
remember 757
h 757
music 757
om@@ 756
keep 755
um 753
fe@@ 752
des 749
guy 749
possible 745
hu@@ 745
true 743
1@@ 743
ce@@ 742
sub@@ 741
cancer 741
lin@@ 740
ci@@ 740
war 740
heard 736
hope 734
ty 734
ments 733
beautiful 732
looked 732
gi@@ 729
read 728
often 726
ones 725
cha@@ 725
du@@ 725
matter 724
open 720
&amp; 720
state 715
gets 715
piece 714
face 714
group 712
india 712
30 710
ph@@ 709
yes 709
built 708
gs 708
video 707
months 706
works 704
amazing 704
community 703
mu@@ 702
answer 702
ates 701
en 700
public 699
stories 697
god 697
someone 696
har@@ 695
taking 694
universe 694
ch 693
r 693
myself 692
united 691
places 690
je@@ 690
instead 687
over@@ 687
w 687
words 684
since 684
education 683
head 682
until 682
ence 682
research 682
ors 680
species 678
isn 677
ourselves 676
under 676
sometimes 674
ins 671
control 669
sing 668
ag@@ 668
turn 665
cor@@ 665
government 665
decided 662
ten@@ 660
somebody 660
sti@@ 660
internet 657
ness 656
ru@@ 656
... 655
res 655
couple 653
order 653
sen@@ 651
ings 651
level 651
night 650
wi@@ 650
language 650
turns 649
rather 648
heart 647
house 645
middle 644
happy 643
exactly 643
mb@@ 643
ful 641
can@@ 639
re 639
ry 639
ori@@ 636
wasn 635
kinds 634
off@@ 633
though 633
everyone 633
d-@@ 632
pos@@ 632
ic@@ 630
stop 630
ck@@ 630
yeah 628
itself 628
large 628
run 627
x@@ 626
mother 625
ot@@ 624
completely 624
themselves 623
ar 622
woman 622
animals 621
ga@@ 621
minutes 621
word 620
students 619
front 618
society 617
sound 617
ck 617
2 615
became 615
game 614
share 610
job 610
model 609
must 609
100 608
company 607
sts 607
ss 607
happening 605
che@@ 605
name 604
air 602
learned 601
ste@@ 600
created 599
sh 599
ons 599
environment 599
mp@@ 598
hear 598
study 598
u 598
friends 597
huge 596
gh@@ 596
lots 595
sive 595
oil 594
dy 593
systems 593
hours 593
america 593
den@@ 592
&#91; 592
&#93; 592
news 590
shows 589
third 589
war@@ 589
act 588
ving 585
ws 585
century 584
natural 583
bri@@ 583
won 583
ve@@ 581
view 581
ked 580
disease 580
ice 580
da@@ 578
0s 578
guys 578
along 576
bio@@ 574
worked 573
american 572
wa@@ 571
ger 569
china 569
questions 567
dly 566
fish 565
self-@@ 565
perhaps 565
figure 565
market 564
particular 564
ys 564
turned 563
moving 563
based 562
knew 562
early 562
ents 561
tation 560
ba@@ 559
against 559
others 558
couldn 558
area 556
ul@@ 554
dra@@ 552
sho@@ 552
gave 552
during 551
ocean 550
ton 550
under@@ 550
learning 550
past 550
size 550
sta@@ 548
9 547
bur@@ 547
tal@@ 545
takes 544
rest 543
ban@@ 543
scale 543
go@@ 541
machine 541
pl@@ 540
3 539
least 539
out@@ 539
ats 538
f 536
cell 535
outside 534
ters 534
finally 531
8@@ 531
free 531
father 530
5@@ 528
difference 527
ants 526
15 526
wonderful 526
seven 525
ying 524
culture 524
needs 524
entire 524
taken 523
ction 523
key 521
ator 519
sin@@ 518
test 516
y-@@ 516
20@@ 516
fa@@ 515
5 515
her@@ 515
19@@ 514
bar@@ 514
med 513
close 513
au@@ 513
gr@@ 511
phone 511
thousands 510
micro@@ 508
powerful 505
ground 504
parts 503
whatever 503
lation 503
lu@@ 502
ze 502
seeing 500
population 500
changed 500
ble 498
york 498
yourself 498
grow 497
beginning 496
ties 496
given 495
jo@@ 495
up@@ 495
leave 494
ou@@ 494
behind 494
certain 494
br@@ 494
cost 494
str@@ 494
ber@@ 494
ki@@ 494
eight 493
spend 493
eyes 492
ations 491
image 491
et 490
ke@@ 489
6 489
ker 488
ce 488
id 487
audience 487
parents 486
9@@ 486
green 485
stage 484
sted 484
walk 483
cal 483
super@@ 483
ct@@ 482
terms 482
force 479
amount 479
interested 479
death 478
easy 478
cannot 477
center 477
economic 477
media 476
wh@@ 475
der@@ 475
table 474
ged 473
common 472
ss@@ 472
team 471
full 470
buy 470
difficult 468
gone 468
known 468
cro@@ 468
books 467
began 466
local 466
wing 465
8 465
ff@@ 464
sha@@ 464
ma 462
wor@@ 461
week 461
ser@@ 461
action 460
tional 460
ined 459
ap@@ 459
ning 458
ously 458
hands 458
fer@@ 456
friend 456
gen@@ 455
zed 455
needed 454
ler 454
ging 454
sions 454
paper 453
simply 452
longer 452
4 452
pe 452
cr@@ 452
z 452
low 452
fil@@ 452
tw@@ 451
cities 451
field 451
black 450
ved 450
ches 450
fo@@ 449
deal 449
value 449
spent 449
realized 449
either 448
incredible 448
humans 448
us@@ 448
sting 445
ens 445
7 445
ia 444
tried 444
ali@@ 444
born 443
mor@@ 443
uc@@ 443
stri@@ 443
7@@ 442
national 441
shing 441
ari@@ 440
cap@@ 440
ev@@ 440
forward 439
step 439
mat@@ 439
cur@@ 439
hold 438
growth 438
blo@@ 437
mer@@ 437
surface 437
quickly 436
sitting 435
feet 435
ality 435
ders 435
watch 434
companies 434
ges 433
6@@ 432
il 432
shed 432
fin@@ 432
complex 431
west 431
ining 431
char@@ 430
1 429
structure 429
and@@ 429
ed@@ 429
ite 429
va@@ 429
200@@ 428
girl 428
lost 428
dna 427
wouldn 426
knowledge 426
40 425
growing 425
blue 424
pay 423
met 423
ver 422
miles 422
pen@@ 422
tion@@ 421
ism 419
die 418
t-@@ 418
em 418
south 417
political 417
ure 417
poor 416
white 416
cut 414
eat 413
economy 413
el 413
weeks 412
felt 412
fun 412
animal 412
ming 411
sea 411
cts 410
tes 410
behavior 410
fly 410
reality 410
technologies 410
giving 409
ster 408
opportunity 408
cra@@ 407
brought 406
developed 406
changes 406
we@@ 405
street 405
win@@ 405
men@@ 405
telling 404
wrote 403
morning 403
personal 403
scientists 402
anyone 402
late 402
patients 402
acy 401
tics 400
/ 399
starting 399
write 398
ent@@ 397
fast 397
inten@@ 397
program 396
theory 396
pped 395
feeling 395
att@@ 395
patient 395
ard 394
col@@ 394
fac@@ 394
hun@@ 393
areas 393
images 393
gives 391
gar@@ 391
ship 391
nice 391
pas@@ 389
em@@ 389
ob@@ 389
ars 389
cli@@ 389
ther@@ 388
understanding 388
pur@@ 387
enti@@ 387
u.s. 387
sun 387
sk@@ 386
climate 386
attention 385
fla@@ 385
discovered 385
short 383
fied 382
literally 382
sal@@ 381
speak 381
flo@@ 380
sur@@ 380
et@@ 379
seems 379
air@@ 379
film 379
ven@@ 378
tools 378
cars 378
numbers 378
clu@@ 378
produce 377
mic 377
lt 377
non-@@ 377
all@@ 377
ran@@ 377
ently 376
cru@@ 375
board 375
realize 375
cri@@ 375
average 375
challenge 372
material 372
ger@@ 371
han@@ 371
died 371
nu@@ 371
playing 371
clo@@ 370
cy@@ 370
stic 370
tro@@ 369
fully 369
absolutely 369
ned 369
ching 369
normal 368
dar@@ 368
lar@@ 368
access 368
bottom 367
changing 367
pping 367
running 367
law 367
my@@ 366
physical 366
allow 365
hundreds 365
developing 365
ore 364
individual 364
vo@@ 364
alone 364
fu@@ 363
movement 362
uses 362
vision 362
millions 362
creating 362
girls 362
result 362
shape 362
nobody 361
deep 361
12 361
modern 361
fl@@ 361
coun@@ 361
ssed 360
map 360
e-@@ 360
ren@@ 360
ics 360
forms 359
tur@@ 358
quality 358
lab 357
cre@@ 357
kes 356
recently 356
english 356
la 356
lan@@ 356
bs 355
compassion 355
60 354
development 354
ically 354
mil@@ 353
focus 353
product 353
pla@@ 353
web 352
sto@@ 352
mental 351
cks 351
dro@@ 351
showed 351
stra@@ 351
os 350
connected 350
stand 350
relationship 350
solution 350
inst@@ 350
wish 350
wall 350
sy@@ 350
designed 348
bra@@ 348
knows 348
major 347
nor@@ 347
anybody 347
ster@@ 347
tiny 346
sses 346
tor@@ 346
seem 345
rate 345
industry 345
obviously 345
innovation 345
security 345
blood 345
type 345
aren 344
position 344
moved 344
lines 344
ct 343
comm@@ 343
box 343
lar 343
kid 343
dark 343
cted 342
gre@@ 342
support 342
soon 342
chinese 342
likely 342
gla@@ 342
talked 342
generation 341
revolution 341
cool 341
issue 341
she@@ 341
bed 340
begin 340
incredibly 340
clear 340
vir@@ 340
save 339
evolution 339
ted@@ 339
especially 339
hea@@ 339
medical 339
available 339
est 338
ory 338
sed 338
writing 338
ine@@ 338
haven 337
dri@@ 336
north 336
ended 336
199@@ 336
don@@ 336
experiment 336
pan@@ 336
class 335
becomes 334
online 334
ill 334
wn 334
university 334
lived 333
vers 333
lim@@ 333
effect 333
ture 333
happiness 333
present 332
25 332
beyond 332
perfect 332
ner 331
da 331
explain 331
games 331
ators 330
bigger 329
source 329
— 329
please 329
guess 328
squ@@ 328
trac@@ 327
computers 327
far@@ 327
provi@@ 327
star@@ 326
oper@@ 326
reasons 326
chi@@ 326
mission 326
cal@@ 325
situation 325
pul@@ 325
hour 325
tic@@ 325
fre@@ 325
resources 325
scientific 324
drive 324
impact 324
europe 324
fear 324
asking 324
cation 324
wil@@ 323
bor@@ 323
east 323
sters 323
els 323
solve 322
town 322
network 322
putting 322
0@@ 322
ered 322
groups 322
device 322
digital 321
brea@@ 320
shi@@ 320
dead 320
cho@@ 320
tells 320
office 320
worth 320
ue 320
por@@ 319
materials 319
rules 318
schools 318
tan@@ 318
ns 317
spo@@ 317
hor@@ 317
lon@@ 317
lea@@ 317
meet 317
gt 316
explo@@ 316
sion@@ 316
baby 315
cting 315
0-@@ 315
teach 315
ball 315
est@@ 314
similar 313
pictures 313
voice 313
color 313
several 312
cate 312
tical 312
solar 312
towards 312
special 312
chance 312
pal@@ 311
ang@@ 311
ssing 311
ative 310
mal@@ 310
general 310
ici@@ 310
involved 310
teachers 310
sil@@ 310
fall 310
smo@@ 310
gener@@ 309
issues 309
activity 309
appe@@ 309
cop@@ 309
particularly 308
plant 308
wind 308
risk 308
anti@@ 307
door 307
plants 307
suddenly 307
uni@@ 307
road 307
sli@@ 307
indeed 307
ef 306
projects 306
deli@@ 306
sounds 306
serve 305
onto 305
dan@@ 305
break 305
mis@@ 304
list 304
logical 303
cated 303
boy 302
fun@@ 302
evidence 302
basic 302
robot 302
bul@@ 301
18@@ 301
speed 301
hundred 301
certainly 301
truth 301
indi@@ 300
carbon 300
eye 300
fra@@ 300
ward 300
minute 299
eth@@ 299
nine 299
object 298
listen 298
11 298
emer@@ 298
message 298
rou@@ 297
strong 297
village 297
anyway 296
talks 296
plan@@ 295
tex@@ 295
choice 295
wants 295
gly 295
ja@@ 295
code 295
stay 294
mine 294
den 294
positive 294
self 294
hit 294
dre@@ 294
month 293
tho@@ 293
moral 292
cul@@ 292
back@@ 292
examples 291
medi@@ 291
gas 291
college 291
ping 290
starts 290
imag@@ 290
walking 290
tically 289
tives 289
showing 288
smart 288
high-@@ 288
skin 287
ready 287
mer 287
everywhere 287
reach 287
interest 287
ces 287
ths 287
wel@@ 287
exciting 287
further 287
ized 287
pattern 287
notice 286
spread 286
gh 286
software 286
fire 286
wait 286
grand@@ 284
plan 283
develop 283
totally 283
journey 283
page 283
democracy 283
nuclear 283
biggest 282
ben@@ 282
measure 282
potential 282
ther 282
lose 282
follow 282
row 281
extraordinary 281
send 281
add 281
sit 281
mes 280
yo@@ 280
tend 280
named 280
cla@@ 280
period 280
ages 279
sun@@ 279
mass 279
teacher 279
eng@@ 279
ele@@ 279
ably 279
student 279
ner@@ 278
fir@@ 278
grew 278
equ@@ 278
ines 278
lies 278
among 278
ear@@ 277
bal@@ 277
pick 277
fri@@ 277
mp 276
google 276
medicine 276
eventually 275
ank 275
store 274
hospital 274
poverty 274
ty@@ 274
kers 274
lead 274
arm 274
posed 273
see@@ 273
buildings 273
ow@@ 273
ber 273
cy 273
version 273
sent 272
points 272
largest 272
aging 272
cultural 272
extremely 272
foot@@ 272
except 272
peace 272
organization 271
approach 271
visual 271
jobs 271
cause 271
ences 271
international 271
dance 271
dr@@ 270
80 270
usually 270
essentially 270
dom@@ 270
watching 270
success 270
res@@ 270
inv@@ 270
hiv 270
mul@@ 269
camera 269
standing 269
tor 269
stor@@ 269
rich 269
fore@@ 269
ends 268
products 268
san@@ 268
objects 268
continue 268
pat@@ 267
older 267
alized 267
series 266
ited 266
trees 266
iz@@ 266
results 266
ina 265
david 265
200 265
500 265
logy 265
foot 265
cked 264
ur 264
electricity 264
somewhere 263
ide@@ 263
ely 263
spe@@ 263
tun@@ 263
bes 263
wed 262
brains 262
safe 262
sky 262
ref@@ 261
tly 261
wat@@ 261
movie 260
pic@@ 260
ctions 259
somehow 259
expect 259
syn@@ 259
mit 259
minds 259
shot 258
ig@@ 258
pt 258
creative 258
sex 258
publi@@ 257
stre@@ 257
leaders 257
doctor 257
port 257
studies 256
assu@@ 256
mom 256
wife 256
sch@@ 256
models 256
sell 256
press 256
impossible 256
larger 256
thousand 256
wards 256
expensive 255
meaning 255
sorts 255
higher 255
hy@@ 254
screen 254
inf@@ 254
shown 254
serious 254
crazy 254
zing 254
african 253
appro@@ 253
training 253
allowed 253
touch 252
ards 252
vari@@ 252
above 251
conditions 251
ched 251
site 251
including 251
faces 251
ack 251
stro@@ 251
written 251
finding 251
pieces 251
bas@@ 251
beauty 250
prin@@ 250
wal@@ 250
therefore 250
killed 250
neuro@@ 249
cing 249
tree 249
reading 249
tele@@ 249
poli@@ 249
traditional 249
stars 249
rise 248
yed 248
income 248
trust 248
excited 248
biology 247
production 247
connect 247
ley 247
architecture 247
individuals 247
bacteria 246
tle 246
goal 246
kin@@ 246
supposed 246
taught 246
shes 246
crisis 246
complicated 245
upon 245
photograph@@ 245
tal 245
dream 245
ery 245
truly 245
perspective 245
dent 245
mit@@ 244
ligh@@ 244
drugs 244
respon@@ 244
vie@@ 244
oun@@ 243
families 243
ial 243
18 243
sm@@ 243
tool 243
famous 243
violence 243
bodies 242
lower 242
ately 242
active 242
drug 242
favorite 242
ced 242
seconds 242
tre@@ 242
faster 242
healthy 241
mot@@ 241
fantastic 241
0,000 241
kill 241
down@@ 240
treatment 240
zero 240
role 240
fight 240
tru@@ 240
ate@@ 240
communities 239
hand@@ 239
hon@@ 239
region 239
math 239
content 239
alive 238
himself 238
fine 238
ay 238
head@@ 238
preci@@ 238
ll 238
cking 237
wea@@ 237
scri@@ 237
neurons 237
lling 236
response 236
ten 236
ly@@ 236
worse 236
eri@@ 236
freedom 236
psycho@@ 236
cases 235
successful 235
ta 235
meant 235
throughout 235
lights 235
range 235
logist 234
genes 234
humanity 234
fer 234
invented 234
although 234
skills 234
non@@ 234
predi@@ 234
bla@@ 234
price 233
bunch 233
cles 233
irs 233
reco@@ 233
fundamental 233
one-@@ 233
prote@@ 233
hot 233
service 233
hal@@ 232
ea@@ 232
square 232
pain 232
machines 232
cer@@ 231
to-@@ 231
kept 231
impro@@ 231
bil@@ 231
ray 231
western 231
physics 231
fro@@ 231
dad 230
hom@@ 230
earlier 230
central 230
military 230
gotten 230
vel@@ 230
flu@@ 230
flow 229
depen@@ 229
clearly 229
foun@@ 229
strange 229
dd@@ 229
beings 229
ases 229
policy 229
eco@@ 228
smaller 228
main 228
tivity 228
recognize 228
,000 228
allows 228
rights 228
ils 228
concept 228
geo@@ 228
context 228
initi@@ 227
ford 227
patterns 227
americans 227
ad 227
swe@@ 227
reduc@@ 226
mani@@ 226
familiar 226
waste 226
progress 226
van@@ 226
ish 226
choose 226
engineering 225
ist 225
tively 225
,@@ 225
ared 225
virus 225
connection 224
ful@@ 224
costs 224
ace 224
record 224
thanks 224
tain 224
loved 224
massive 224
consider 224
le-@@ 224
listening 224
wonder 224
anywhere 223
solutions 223
current 223
hear@@ 223
fru@@ 223
cen@@ 223
human@@ 223
waiting 223
values 223
lations 222
greater 222
rela@@ 222
slow 222
chan@@ 222
ran 222
contribu@@ 222
actual 222
plastic 222
hey 222
cies 222
treat 222
re-@@ 221
enter@@ 221
president 221
draw 221
raise 221
ical 221
aid 221
mber 220
driving 220
person@@ 220
wer 219
provide 219
bits 219
anda 219
print 219
museum 219
decisions 219
dangerous 218
ey 218
date 218
rac@@ 218
dollar 218
calcul@@ 218
critical 218
effective 218
sum@@ 218
magic 218
surgery 218
v 217
related 217
adap@@ 217
religion 217
ple@@ 217
sustainable 217
ale 216
protect 216
198@@ 216
obser@@ 216
pres@@ 216
none 216
argu@@ 216
legal 216
bon@@ 216
remarkable 216
however 216
cou@@ 216
clean 216
teaching 216
politics 216
robots 216
star 216
walked 215
travel 215
two-@@ 215
aware 215
conference 215
ol 215
intelligence 215
whose 215
fuel 215
tv 215
artist 214
nic@@ 214
exist 214
conversation 214
diversity 214
sla@@ 214
anymore 214
park 213
legs 213
fy 213
direction 213
bank 213
repor@@ 213
becoming 213
train 213
song 213
rule 213
logists 212
hole 212
docu@@ 212
ven 212
nur@@ 212
produc@@ 212
john 212
actions 212
ods 212
tter@@ 212
forest 212
ft 211
life@@ 211
sphere 211
disa@@ 211
meter 211
understood 211
st-@@ 210
histor@@ 210
gor@@ 210
5,000 210
cations 210
scientist 210
glass 210
graphic 210
ah 210
genetic 210
practice 210
immediately 209
bre@@ 209
gl@@ 209
floor 209
slide 209
pull 209
liber@@ 209
specific 209
subject 209
physici@@ 209
ands 209
represen@@ 208
increase 208
dog 208
greatest 208
ei@@ 208
flying 208
itation 208
enormous 207
mechan@@ 207
markets 207
shel@@ 207
function 207
website 207
decade 206
produced 206
environmental 206
san 206
phones 206
ctive 206
speaking 206
are@@ 206
ff 206
bru@@ 206
station 205
weight 205
sequence 205
capit@@ 205
cold 205
continu@@ 205
gri@@ 204
disappe@@ 204
thre@@ 204
compe@@ 204
fol@@ 204
bro@@ 204
mars 204
creativity 204
feed 203
val@@ 203
performance 203
chemical 203
tin 203
following 203
pp@@ 203
sharing 203
forth 203
weren 202
ky 202
photograph 202
forget 202
spir@@ 202
temperature 202
complete 202
television 202
forces 202
survive 201
ped 201
stan@@ 201
various 201
private 201
resi@@ 201
track 201
networks 201
conduc@@ 201
unfortunately 200
ering 200
70 200
useful 200
services 200
sel@@ 200
ek 200
inspired 200
od@@ 200
boys 200
chair 200
ny 199
summer 199
unique 199
meters 199
police 199
ites 199
shared 199
types 198
evolved 198
near 198
stick 198
cep@@ 198
main@@ 198
x-@@ 198
compu@@ 198
shor@@ 198
gene 198
ahead 198
concer@@ 198
ring 198
cover 198
mag@@ 198
doctors 198
thro@@ 198
gers 198
conflict 198
bringing 197
sign 197
original 197
fron@@ 197
meeting 197
possibly 197
recent 197
fli@@ 197
win 197
grade 197
birds 197
path 197
final 196
net 196
passion 196
ads 196
speci@@ 196
helped 196
hol@@ 196
bb@@ 196
pit@@ 196
gn@@ 196
sor@@ 195
alism 195
ach 195
funny 195
societies 195
babies 195
trade 195
ots 194
directly 194
qui@@ 194
institutions 194
mostly 194
gue 194
wan@@ 194
90 194
effects 194
consciousness 194
pain@@ 193
discover 193
london 193
destro@@ 193
levels 193
cure 193
ld 193
lie 192
experiments 192
acting 192
mac@@ 192
end@@ 192
moon 192
indian 192
na 192
alization 192
aids 192
ain 191
industrial 191
pass 191
obvious 191
heat 191
search 191
pers 191
emb@@ 191
genome 191
career 190
bl@@ 190
scre@@ 190
dness 190
financial 190
illu@@ 190
below 190
radi@@ 190
wo@@ 190
sorry 190
sat 190
era 189
mobile 189
communi@@ 189
dr. 189
island 189
clin@@ 189
luc@@ 189
exten@@ 189
ency 189
workers 189
dep@@ 188
surr@@ 188
daughter 188
focused 188
terrible 187
construc@@ 187
00 187
challenges 187
id@@ 187
ier 187
diagno@@ 187
bought 187
biological 187
ize 187
ep 187
16 187
governments 187
pes 187
task 186
emotional 186
birth 186
motiv@@ 186
emp@@ 186
capacity 186
explore 186
ancient 186
vot@@ 186
nan@@ 186
afghanistan 186
high@@ 186
iled 185
eating 185
capital 185
willing 185
decide 185
bill 185
ian 185
domin@@ 185
term 185
artists 185
ets 185
gal@@ 185
tations 185
laws 185
than@@ 184
fit 184
played 184
multi@@ 184
decision 184
wood 183
twice 183
xi@@ 183
communication 183
event 183
instance 183
spending 183
turning 183
jun@@ 183
nation 183
boun@@ 183
causes 183
real@@ 183
zo@@ 183
complexity 182
istic 182
sleep 182
ken 182
expe@@ 182
purpose 182
ton@@ 182
pressed 182
paid 182
spea@@ 182
stone 182
tou@@ 182
exc@@ 182
carry 181
ana 181
straight 181
conver@@ 181
worry 181
balance 181
infrastructure 181
popular 181
dying 181
closer 181
trial 181
pressure 181
home@@ 180
surprising 180
character 180
push 180
slightly 180
chris 180
sm 180
para@@ 180
glob@@ 180
molecules 179
contro@@ 179
yers 179
urban 179
af@@ 179
wit@@ 179
tent 179
dence 179
repe@@ 179
decades 179
diseases 179
gro@@ 178
cl@@ 178
vering 178
cally 178
devices 178
mini@@ 178
tures 178
mel@@ 178
-year-old 178
tt@@ 178
broken 177
ingly 177
calls 177
address 177
secret 177
charge 177
mic@@ 176
drop 176
cycle 176
teen@@ 176
$ 176
quick 176
memory 176
300 176
ok@@ 176
prof@@ 176
tar@@ 176
colon@@ 176
mam@@ 176
ess 175
gam@@ 175
significant 175
vation 175
sugge@@ 175
published 175
trouble 175
ant@@ 175
lo 175
analy@@ 175
extra 175
ours 174
tremendous 174
s-@@ 174
degrees 174
supply 174
q@@ 174
style 174
coffee 174
designers 174
california 173
ops 173
acts 173
citizens 173
descri@@ 173
sis 173
answers 173
scen@@ 173
dete@@ 173
10,000 173
app@@ 173
passed 172
plu@@ 172
check 172
race 172
sol@@ 172
regi@@ 172
pol@@ 172
worst 172
party 172
apart 172
sides 172
stu@@ 172
lec@@ 172
atmosphere 172
ssion 172
blind 172
yer 172
lets 171
shift 171
justice 171
ble@@ 171
etc 171
ners 171
bot@@ 171
radio 171
creates 171
rooms 171
wee@@ 171
low-@@ 171
journ@@ 170
notion 170
collabor@@ 170
communicate 170
differences 170
rev@@ 170
mountain 170
integr@@ 170
improve 170
sia 170
suppor@@ 170
law@@ 170
gan@@ 170
structures 170
terri@@ 169
hearing 169
foundation 169
tim@@ 169
broad@@ 169
2,000 169
noticed 169
pon@@ 169
sible 169
oxygen 169
formed 169
roo@@ 169
bom@@ 169
fab@@ 168
ambi@@ 168
responsibility 168
vic@@ 168
accep@@ 168
phenomenon 168
lying 168
richard 168
a-@@ 168
rock 168
and-@@ 168
edge 168
load 167
organisms 167
leg@@ 167
197@@ 167
seemed 167
1,000 167
frequ@@ 167
fying 167
nations 167
program@@ 167
pra@@ 167
alist 167
sand 167
memor@@ 167
infe@@ 166
fix 166
&apos;@@ 166
iling 166
rus@@ 166
tors 166
dy@@ 166
new@@ 166
helping 166
colleagues 166
sle@@ 166
ani@@ 166
hi 166
ser 166
asks 166
graph 165
fr@@ 165
work@@ 165
possibility 165
feels 165
corner 165
ential 165
text 165
electric 165
studying 165
diver@@ 165
farmers 165
religious 165
standard 165
reli@@ 165
electr@@ 165
easily 165
dan 165
ment@@ 165
repli@@ 165
link 164
nearly 164
necessarily 164
basis 164
alities 164
condition 164
assemb@@ 164
programs 164
top@@ 164
disc@@ 164
lic 164
particles 164
achieve 164
cel@@ 164
planets 164
sou@@ 164
stand@@ 164
tissue 164
ear 163
acade@@ 163
break@@ 163
stration 163
window 163
organizations 163
year-old 163
sac@@ 163
painting 163
lou@@ 162
profit 162
return 162
organiz@@ 162
collec@@ 162
landscape 162
flight 162
figured 162
custom@@ 162
total 162
efficient 162
14 162
by@@ 162
jan@@ 162
pounds 162
consu@@ 162
hair 162
tured 161
profes@@ 161
iraq 161
rain 161
dest 161
knowing 161
int 161
reduce 161
duc@@ 161
giant 161
bird 161
mark 161
lau@@ 161
imagination 161
boat 160
lit@@ 160
finished 160
highly 160
lic@@ 160
lucky 160
ink 160
aching 160
core 160
dents 160
agree 160
bridge 160
mc@@ 160
kil@@ 160
dge 160
asia 160
civil 160
ples 159
adi@@ 159
nutri@@ 159
xed 159
tail 159
distin@@ 159
relationships 159
fair 159
agre@@ 159
reflec@@ 159
stopped 159
streets 159
flu 159
definition 159
necessary 159
choices 159
gol@@ 158
ick 158
ssi@@ 158
benefit 158
eu@@ 158
thir@@ 158
zen 158
opportunities 158
believ@@ 158
engine 158
interact 158
cent 158
ra 158
fication 158
vac@@ 158
ath@@ 158
leads 157
tech 157
ase 157
prison 157
leading 157
differently 157
yellow 157
argument 157
del@@ 157
missing 157
pose 157
1.@@ 157
despite 157
professor 156
aches 156
saving 156
respect 156
ultimately 156
accoun@@ 156
designer 156
prize 156
ske@@ 156
goo@@ 156
brings 156
members 156
parent 156
organic 156
mur@@ 156
flies 156
bone 156
sites 155
effort 155
ey@@ 155
moves 155
plac@@ 155
invol@@ 155
ach@@ 155
moments 155
engage 155
gate 155
mps 155
ore@@ 155
throw 155
deci@@ 155
attack 155
cir@@ 155
tom 154
join 154
mathematics 154
foreign 154
comfortable 154
ories 154
adop@@ 154
tin@@ 154
oc@@ 154
noise 154
mr. 154
visit 154
comp@@ 154
operation 153
discovery 153
ears 153
mid@@ 153
reve@@ 153
boo@@ 153
loo@@ 153
forever 153
inci@@ 153
fairly 153
lesson 153
benefits 153
agriculture 153
forma@@ 153
bread 153
om 153
emotions 153
coast 152
gene@@ 152
helps 152
land@@ 152
ior 152
pair 152
held 152
nee@@ 152
ere 152
raised 152
tch 152
brilliant 152
suff@@ 152
iran 152
ney 152
ric 151
demonstr@@ 151
suffering 151
extreme 151
13 151
antly 151
engineers 151
on-@@ 151
well-@@ 150
lled 150
puts 150
vol@@ 150
river 150
fold 150
exp@@ 150
ir 150
shares 150
apply 150
peri@@ 150
typical 150
slowly 150
acks 150
ite@@ 150
ef@@ 150
afraid 150
conscious 150
wisdom 150
ha 150
female 149
japan 149
hel@@ 149
gradu@@ 149
ess@@ 149
bel 149
counter@@ 149
len@@ 149
bees 149
filled 149
ancy 149
responsible 149
billions 149
afford 149
matters 149
sian 149
engineer 149
adults 149
sick 149
creatures 149
ing@@ 149
carto@@ 149
stem 149
fashion 149
mothers 148
ries 148
facebook 148
quote 148
degree 148
sely 148
note 148
elements 148
fighting 148
fields 148
ep@@ 148
craft 148
mouse 148
card 148
motion 148
negative 148
alize 148
ome@@ 147
report 147
thy 147
competition 147
soci@@ 147
capable 147
appreci@@ 147
compar@@ 147
begins 147
bel@@ 147
matic 147
fascinating 147
dun@@ 147
walls 147
graphy 147
1,@@ 147
french 147
ried 147
24 146
inve@@ 146
sector 146
itu@@ 146
distance 146
experiences 146
cheap 146
influence 146
titude 146
easier 146
hopefully 146
vast 146
stream 146
virtual 146
caught 146
part@@ 146
pun@@ 146
ounded 146
gun 145
respond 145
-up 145
inno@@ 145
leaving 145
196@@ 145
identity 145
loss 145
recei@@ 145
wild 145
holding 145
gon@@ 145
crime 145
profound 145
traffic 145
ham@@ 145
statistics 145
nar@@ 145
mom@@ 144
meat 144
vely 144
shop 144
pac@@ 144
mal 144
tting 144
din@@ 144
block 144
but@@ 144
promise 144
electro@@ 144
ath 144
determin@@ 144
british 144
dig@@ 144
mented 144
auth@@ 144
base 143
sold 143
heads 143
consi@@ 143
anthro@@ 143
evol@@ 143
power@@ 143
brother 143
wide 143
enjoy 143
sequ@@ 143
vement 143
ached 143
powered 143
colors 143
simul@@ 143
gall@@ 143
suit 143
shouldn 142
offer 142
breast 142
describe 142
studied 142
investment 142
iting 142
magazine 142
lack 142
speech 142
ie 142
pr@@ 142
ists 142
ought 142
otherwise 142
desert 142
importantly 142
trained 142
paint 142
fif@@ 142
doub@@ 142
gos 142
invest 142
j 141
dreams 141
optimi@@ 141
dist@@ 141
insects 141
normally 141
soft 141
efs 141
arms 141
happ@@ 141
ne 141
campaign 141
ka 141
fill 140
ghts 140
tionally 140
consumption 140
400 140
itable 140
sudden 140
divi@@ 140
aling 140
galaxy 140
fellow 140
principles 140
interpre@@ 140
therapy 140
sister 140
jud@@ 140
invisible 140
damage 139
inclu@@ 139
factory 139
wave 139
ca 139
catch 139
placed 139
addi@@ 139
economics 139
milli@@ 139
molecule 139
steps 139
everyday 139
l-@@ 139
wear 139
seriously 139
beat 139
ales 138
acu@@ 138
separ@@ 138
in-@@ 138
civilization 138
professional 138
entirely 138
ai@@ 138
operating 138
cam@@ 138
languages 138
disco@@ 138
sul@@ 138
intelligent 138
dry 138
audi@@ 138
opposite 138
transform 138
arti@@ 138
blu@@ 138
rid 138
spring 137
corre@@ 137
func@@ 137
spirit 137
tiv@@ 137
robo@@ 137
17 137
sex@@ 137
lect 137
husband 137
labor 137
limited 137
aw@@ 137
depression 137
mouth 137
ero@@ 137
circle 137
sus 137
belief 137
sna@@ 137
events 137
creation 137
sors 137
warming 137
contin@@ 137
mathema@@ 137
th-@@ 137
protein 137
airplane 137
ene@@ 137
ception 137
viruses 136
conta@@ 136
ka@@ 136
gran@@ 136
keeping 136
plus 136
argue 136
stuck 136
concerned 136
deliver 136
roll 136
photo 136
article 136
less@@ 136
fal@@ 136
omy 136
lands 136
desire 136
recogn@@ 136
visu@@ 136
principle 136
bab@@ 136
pros@@ 136
theater 135
believed 135
background 135
quar@@ 135
acceler@@ 135
managed 135
commercial 135
deeply 135
amp 135
ves@@ 135
spon@@ 135
three-@@ 135
designing 135
co2 135
dynamic 135
yesterday 135
male 135
toward 135
experim@@ 135
wow 135
elec@@ 135
gen 135
bin@@ 135
oceans 134
ko@@ 134
prototy@@ 134
opened 134
tom@@ 134
med@@ 134
tract 134
whenever 134
institute 134
followed 134
childhood 134
ill@@ 134
after@@ 134
fail@@ 134
intervie@@ 134
bit@@ 134
hate 134
majority 134
predict 134
ology 134
astron@@ 134
plane 134
failed 134
laugh@@ 134
ec@@ 134
prob@@ 134
increasingly 134
ues 134
olu@@ 134
temp@@ 134
evil 134
crimin@@ 134
kid@@ 134
sight 133
tradi@@ 133
driven 133
surprise 133
paul 133
washington 133
ong 133
fic@@ 133
bly 133
generate 133
ght-@@ 133
enter 133
los 133
presen@@ 133
ending 133
u.@@ 133
thinks 133
pages 133
spaces 133
opening 133
versus 133
ids 133
habit@@ 133
israel 133
demo@@ 133
tomorrow 133
whom 132
perfectly 132
electrical 132
wealth 132
blin@@ 132
constantly 132
separate 132
according 132
scop@@ 132
wearing 132
charles 132
posi@@ 132
ket 132
bac@@ 131
drawing 131
cognitive 131
tural 131
due 131
brand 131
farm 131
eli@@ 131
mexico 131
soil 131
church 131
tran@@ 131
heli@@ 131
prevent 131
failure 131
practic@@ 131
apple 131
survival 131
fted 131
fourth 131
finger 131
cle 130
volunte@@ 130
currently 130
compare 130
graduate 130
monit@@ 130
harder 130
unless 130
independent 130
define 130
terr@@ 130
shu@@ 130
stop@@ 130
photos 130
match 130
transl@@ 130
dimensions 130
secre@@ 130
ken@@ 130
tan 130
corruption 130
letter 129
gather@@ 129
producing 129
actor 129
metaphor 129
slo@@ 129
py 129
classroom 129
bar 129
spot 129
secon@@ 129
compli@@ 129
edu@@ 129
arts 129
jump 129
ption 129
hyper@@ 129
bran@@ 129
agen@@ 129
gging 129
ordinary 129
adv@@ 129
kno@@ 129
o-@@ 129
covered 128
gry 128
organized 128
random 128
legi@@ 128
universal 128
tumor 128
experts 128
vege@@ 128
50,000 128
voices 128
count 128
angle 128
galaxies 128
interven@@ 128
affect 128
suppose 127
gged 127
leaves 127
toi@@ 127
rain@@ 127
rural 127
affe@@ 127
leadership 127
some@@ 127
caused 127
invited 127
weird 127
univer@@ 127
tough 127
spre@@ 127
equivalent 127
exists 127
treated 127
gain 127
ii 127
worried 127
tici@@ 127
succe@@ 127
poin@@ 127
gin 127
investi@@ 127
continent 126
artificial 126
email 126
dinner 126
paying 126
our@@ 126
proje@@ 126
distribution 126
signals 126
shapes 126
bing 126
sy 126
spac@@ 126
compared 126
signal 126
stun@@ 126
debate 126
ron@@ 126
japanese 125
thetic 125
ack@@ 125
hasn 125
direct 125
hur@@ 125
hidden 125
negoti@@ 125
hen@@ 125
layer 125
cortex 125
holes 125
einstein 125
planning 125
liter@@ 125
symbo@@ 125
sear@@ 125
businesses 125
weapons 125
european 124
liz@@ 124
chemicals 124
stac@@ 124
ak 124
valley 124
vehicle 124
ables 124
construction 124
sexual 124
shoes 124
hell 124
represent 124
cular 124
copy 124
gic 124
threat 124
thesis 124
appear 124
mate 124
seat 124
muscle 124
neighborhood 124
arely 123
waves 123
ports 123
cent@@ 123
stru@@ 123
expression 123
rational 123
names 123
strategy 123
gin@@ 123
dir@@ 123
ge-@@ 123
aries 123
econom@@ 123
grown 123
sum 123
mortality 123
described 123
scan@@ 123
advantage 123
lunch 123
insi@@ 123
camp 123
lady 123
bear 123
cloud 123
tens 123
fran@@ 123
highest 123
facts 123
commit@@ 123
mentioned 123
zes 123
incre@@ 123
tter 123
malaria 123
popu@@ 122
proud 122
weather 122
20th 122
seas@@ 122
collective 122
generations 122
uring 122
forming 122
vote 122
gy 122
ese 122
pot@@ 122
chemistry 122
dinosaurs 122
def@@ 122
character@@ 122
feelings 122
houses 122
occu@@ 122
closed 121
ration 121
matically 121
wake 121
percei@@ 121
spi@@ 121
proce@@ 121
dies 121
spect@@ 121
double 121
worldwide 121
discipl@@ 121
hypo@@ 121
uck 121
britain 121
violent 121
interaction 121
arch@@ 121
bet 121
kore@@ 121
heavy 120
minister 120
tioning 120
emerging 120
sky@@ 120
ound 120
losing 120
launched 120
garden 120
imp@@ 120
influ@@ 120
survi@@ 120
multiple 120
ances 120
forced 120
clinical 120
pin@@ 119
chain 119
fat 119
michael 119
canada 119
jac@@ 119
technical 119
dering 119
associated 119
read@@ 119
intellectual 119
announ@@ 119
45 119
izing 119
ham 119
scope 119
player 119
england 119
ams 119
til@@ 119
drink 118
mulation 118
molecular 118
fell 118
leg 118
kne@@ 118
practical 118
fting 118
grandmother 118
army 118
abilities 118
conf@@ 118
married 118
interface 118
democratic 118
gold 118
details 118
lab@@ 118
library 118
thri@@ 118
collect 118
ination 118
ental 118
coral 118
rot@@ 118
killing 118
consequences 118
hall 118
spectrum 118
smell 117
awful 117
department 117
northern 117
phil@@ 117
mers 117
setting 117
surprised 117
avoid 117
identi@@ 117
mile 117
grand 117
who@@ 117
equal 117
enjo@@ 117
roughly 117
detail 117
location 117
remote 117
movies 117
resource 117
di 117
colum@@ 117
steel 117
pre-@@ 117
disaster 117
honest 117
letters 117
equipment 117
bright 117
emotion 117
teeth 117
homes 117
trip 117
trials 117
photo@@ 117
eleph@@ 117
va 117
selling 116
studio 116
contact 116
coal 116
inner 116
realiz@@ 116
importance 116
brown 116
smar@@ 116
joy 116
al-@@ 116
100,000 116
set@@ 116
ement 116
autom@@ 116
pleasure 116
0 116
cultures 116
ading 116
leader 116
vit@@ 116
35 116
occa@@ 116
users 116
sw@@ 115
aded 115
graph@@ 115
cate@@ 115
cating 115
transformation 115
management 115
soldiers 115
accident 115
lessons 115
rates 115
budget 115
dealing 115
sad 115
van 115
bat@@ 115
tons 115
sty 115
ills 115
controlled 115
gram 115
cat@@ 115
10@@ 115
prove 115
section 115
feedback 115
kenya 115
spoke 115
affected 115
play@@ 115
ans@@ 115
regular 114
tox@@ 114
hadn 114
shir@@ 114
calling 114
swit@@ 114
bus 114
essential 114
zz@@ 114
whe@@ 114
mus@@ 114
jer@@ 114
conclu@@ 114
kilometers 114
possibilities 114
reaction 114
stood 114
3,000 114
musici@@ 114
fig@@ 114
strate@@ 114
classi@@ 114
appli@@ 114
george 114
govern@@ 114
james 114
ban 114
nigeria 114
absolute 114
warm 114
ctors 113
ridge 113
17@@ 113
stress 113
productive 113
er-@@ 113
oth 113
researchers 113
partner 113
pregn@@ 113
ces@@ 113
phi@@ 113
property 113
long-term 113
plate 113
underneath 113
account 113
itual 113
whereas 113
effectively 113
finish 113
empty 113
australia 113
post-@@ 113
thers 113
fossil 113
ony 113
chicken 113
open-@@ 113
shall 113
thoughts 113
sco@@ 113
adult 112
horse 112
amaz@@ 112
aggre@@ 112
fts 112
sav@@ 112
val 112
round 112
arrived 112
struc@@ 112
encoura@@ 112
nervous 112
specifically 112
log@@ 112
suggest 112
ll@@ 112
prime 112
satur@@ 112
ased 112
dest@@ 112
metal 112
isla@@ 112
cards 112
dat@@ 112
analysis 112
3d 112
py@@ 111
beach 111
150 111
entreprene@@ 111
honor 111
daily 111
wire 111
mathematical 111
sig@@ 111
radical 111
stance 111
tism 111
picked 111
shar@@ 111
ships 111
mountains 111
pole 111
sand@@ 111
sub-@@ 111
invention 111
reci@@ 111
variety 111
gravity 111
roots 111
transition 111
saved 111
fle@@ 111
cross 111
addition 111
curious 111
measu@@ 111
sharks 111
magnetic 111
sugar 111
experienced 110
connections 110
breath 110
clock 110
chron@@ 110
fund 110
status 110
de-@@ 110
demand 110
miss 110
valuable 110
hero 110
existence 110
advanced 110
mas 110
thomas 110
sources 110
ening 110
express 110
suggests 110
scene 110
- 110
gift 110
considered 110
fewer 110
mix 110
union 110
mony 110
portra@@ 110
ith 110
organs 110
ization 110
99 110
fish@@ 110
tually 110
fail 110
que 110
stea@@ 110
ison 110
buying 109
diet 109
conne@@ 109
agers 109
sa 109
privile@@ 109
stable 109
folks 109
relatively 109
goals 109
respe@@ 109
guar@@ 109
thin@@ 109
igh@@ 109
attrac@@ 109
mon 109
techniques 109
evolutionary 109
protection 109
relevant 109
characters 109
operate 109
cry@@ 109
architect 109
cour@@ 109
ai 109
marine 108
lifetime 108
particip@@ 108
net@@ 108
sets 108
require 108
newspaper 108
admini@@ 108
employees 108
master 108
rais@@ 108
alternative 108
platform 108
dots 108
scot@@ 108
radiation 108
method 108
bee@@ 108
2008 108
typically 108
ultra@@ 108
cil 108
target 108
convince 108
players 108
logic 108
increasing 108
celebr@@ 108
ght@@ 108
fresh 108
via 108
photographs 108
gement 108
silk 108
sar@@ 107
identify 107
perfor@@ 107
co 107
tual 107
encing 107
ze@@ 107
prepared 107
sett@@ 107
bush 107
efficiency 107
testing 107
defined 107
reason@@ 107
ign@@ 107
ium 107
osity 107
industri@@ 107
quest 107
ini@@ 107
explains 107
perception 107
onic 107
aliz@@ 107
rin@@ 107
axis 107
modi@@ 107
ong@@ 107
flat 107
icial 107
swim 107
epidemic 107
awareness 107
tradition 106
cape 106
winter 106
liked 106
green@@ 106
represents 106
illness 106
atlan@@ 106
ols 106
nasa 106
itting 106
vag@@ 106
solved 106
introduced 106
motor 106
wars 106
wra@@ 106
bang 106
achiev@@ 106
factor 106
zone 106
195@@ 106
oran@@ 106
credit 106
previous 106
darwin 106
tane@@ 106
sym@@ 106
sentence 106
cast 106
cs 106
sca@@ 106
restaurant 106
ital 106
diplom@@ 106
ened 106
reward 106
adverti@@ 106
ell 106
bility 106
theme 105
sam@@ 105
breaking 105
clean@@ 105
ecosystem 105
pacific 105
anti-@@ 105
kness 105
safety 105
roads 105
replace 105
ounds 105
facing 105
regre@@ 105
kitchen 105
notes 105
alists 105
primary 105
ily 105
alo@@ 105
associ@@ 105
christi@@ 105
vulnerable 105
satis@@ 105
bia 105
sau@@ 105
za 105
aled 105
ature 105
ush 105
mentary 105
600 105
free@@ 105
aten 105
wers 105
videos 105
mor 105
personally 105
defin@@ 105
mped 105
brothers 105
fishing 105
battery 105
des@@ 104
director 104
writer 104
deeper 104
definitely 104
dea@@ 104
accept 104
gies 104
arri@@ 104
ladies 104
bloo@@ 104
dered 104
atory 104
eral 104
ational 104
environments 104
dow 104
stock 104
ama@@ 104
dru@@ 104
prison@@ 104
risks 104
marketing 104
twitter 104
planes 104
properties 104
hot@@ 104
hop@@ 103
struggle 103
expan@@ 103
bun@@ 103
driver 103
marke@@ 103
nor 103
instrument 103
convinced 103
fes@@ 103
marriage 103
lat@@ 103
tests 103
unlike 103
appropriate 103
patent 103
gap 103
switch 103
extr@@ 103
trick 103
strength 103
senses 103
makers 103
mention 103
rel@@ 103
sen 103
circu@@ 103
exchange 103
thu@@ 103
inspi@@ 103
dogs 103
proteins 103
processes 103
confidence 103
um@@ 103
gment 103
behaviors 103
gency 103
tains 103
tries 103
carrying 102
paraly@@ 102
lock 102
wikipedia 102
visible 102
im 102
requires 102
sending 102
harvard 102
une@@ 102
naturally 102
centers 102
preven@@ 102
drew 102
laptop 102
stupid 102
rare 102
wired 102
collapse 102
battle 102
germany 102
generally 102
gest 102
wr@@ 102
cere@@ 102
assi@@ 102
nal 102
00,000 102
eastern 102
portion 102
mistake 102
windows 102
alu@@ 102
maps 102
wondering 102
blocks 102
mates 102
cooking 102
aring 102
roof 102
ented 102
emissions 102
crash 102
politicians 102
ris@@ 102
phan@@ 102
invent 101
trage@@ 101
artic@@ 101
licen@@ 101
introduce 101
goods 101
ballo@@ 101
unusual 101
drin@@ 101
applied 101
components 101
tles 101
click 101
bottle 101
dle 101
supp@@ 101
ph 101
faith 101
lay 101
berg 101
son@@ 101
received 101
biom@@ 101
hard@@ 101
ggling 101
computing 101
psychology 101
gy@@ 101
watched 101
analo@@ 101
expected 101
lin 101
wings 101
gation 101
chimpanze@@ 101
reven@@ 101
slu@@ 101
comb@@ 101
tem@@ 101
penguins 101
broke 100
acci@@ 100
intri@@ 100
former 100
stimul@@ 100
fav@@ 100
remin@@ 100
poetry 100
gical 100
acqui@@ 100
served 100
liquid 100
inev@@ 100
base@@ 100
buil@@ 100
logically 100
pulled 100
carefully 100
aged 100
bubble 100
u.k. 100
vered 100
hits 100
wise 100
burning 100
writ@@ 100
rab@@ 100
frame 100
wine 100
climb@@ 100
stry 100
trillion 100
ckets 100
shark 100
ancestors 100
tables 100
red@@ 100
sensitive 100
sor 100
ox@@ 99
pack@@ 99
the-@@ 99
curi@@ 99
string 99
skele@@ 99
collaboration 99
scho@@ 99
verage 99
harve@@ 99
added 99
manage 99
rely 99
poo@@ 99
grid 99
consumer 99
percentage 99
discussion 99
dish 99
exploration 99
cont@@ 99
runs 99
grain 99
member 99
ingredi@@ 99
resc@@ 99
musical 99
infected 99
stics 99
exercise 99
novel 99
han 99
sit@@ 99
unit 99
passionate 99
atoms 99
males 98
ride 98
advan@@ 98
francisco 98
healthcare 98
00@@ 98
hospitals 98
alls 98
gay 98
horiz@@ 98
que@@ 98
christ@@ 98
cutting 98
path@@ 98
orchestr@@ 98
mirror 98
robert 98
of-@@ 98
arily 98
treat@@ 98
tile 98
mistakes 98
rever@@ 98
claim 98
sci@@ 98
empathy 98
laboratory 98
interests 98
brazil 98
destruction 98
ot 98
steve 98
arab 98
pollution 97
jam@@ 97
protected 97
tribu@@ 97
hoping 97
-like 97
crow@@ 97
user 97
situations 97
75 97
auton@@ 97
chea@@ 97
pest 97
enty 97
cin@@ 97
pil@@ 97
neighbors 97
deser@@ 97
burn 97
spect 97
display 97
temporary 97
reti@@ 97
hil@@ 97
satellite 97
devi@@ 97
estimate 97
appar@@ 97
sophisticated 97
depends 97
gence 97
solving 97
obje@@ 97
comple@@ 97
capture 97
colli@@ 97
rema@@ 97
house@@ 97
dropped 97
mas@@ 97
gulf 97
comfort 97
amounts 96
bay 96
milk 96
f-@@ 96
three-dimensional 96
peak 96
phenomen@@ 96
southern 96
pay@@ 96
mr@@ 96
opinion 96
encourage 96
coordin@@ 96
susta@@ 96
maker 96
medium 96
closely 96
flowers 96
microbes 96
surgeon 96
cers 96
crowd 96
islam 96
explanation 96
piano 96
embarra@@ 96
activ@@ 96
ager 96
dic@@ 96
innovative 96
hotel 96
open@@ 96
pop 96
bo 96
oly@@ 96
signed 96
entrepreneurs 96
ander@@ 96
falls 95
sees 95
deb@@ 95
concentr@@ 95
insight 95
inspiration 95
oned 95
reached 95
recorded 95
traveling 95
overwhel@@ 95
bag 95
youtube 95
combine 95
counter 95
rand@@ 95
pack 95
alter@@ 95
curr@@ 95
mush@@ 95
combination 95
movements 95
ry@@ 95
affor@@ 95
quanti@@ 95
tracking 95
error 95
ba 95
element 95
story@@ 95
resili@@ 95
beli@@ 95
sha 95
absor@@ 94
hurt 94
predat@@ 94
chest 94
quiet 94
exam@@ 94
inven@@ 94
scar@@ 94
migr@@ 94
activities 94
15@@ 94
2.@@ 94
consist@@ 94
gli@@ 94
relative 94
performing 94
pha@@ 94
include 94
meaningful 94
instruc@@ 94
philosop@@ 94
coura@@ 94
presentation 94
electronic 94
xim@@ 94
eggs 94
small@@ 94
selec@@ 94
forests 94
factors 94
stran@@ 94
ind@@ 94
accurate 94
pli@@ 94
2007 94
presence 94
2000 94
progre@@ 94
pet 94
wheel@@ 94
shoot 94
tabo@@ 94
sir 94
oring 94
smile 94
singing 94
ultimate 94
mble 93
barri@@ 93
transportation 93
execu@@ 93
continued 93
activi@@ 93
sunlight 93
inte@@ 93
walks 93
key@@ 93
views 93
aspect 93
framework 93
manufac@@ 93
sample 93
suc@@ 93
treating 93
awe@@ 93
organ 93
black@@ 93
nership 93
stati@@ 93
taste 93
linked 93
insul@@ 93
heroes 93
apo@@ 93
bi 93
occurred 93
olds 93
quantum 93
pointed 92
one@@ 92
dramatic 92
mirac@@ 92
ss-@@ 92
author 92
technological 92
gun@@ 92
manufacturing 92
topic 92
educational 92
abled 92
tested 92
cat 92
blog 92
falling 92
religions 92
wherever 92
cameras 92
collection 92
holds 92
oxide 92
conclusion 92
hydrogen 92
joke 92
lor@@ 92
steri@@ 92
inse@@ 92
sign@@ 92
tape 92
signific@@ 92
shaped 92
birthday 92
syste@@ 92
empi@@ 92
competi@@ 92
conventional 92
file 92
confli@@ 92
shame 92
cable 92
simil@@ 92
poly@@ 92
plans 92
tie 92
diag@@ 91
toler@@ 91
coo@@ 91
vin@@ 91
fundamentally 91
lian 91
web@@ 91
dedi@@ 91
vil@@ 91
correct 91
bones 91
liver 91
u.n. 91
c. 91
release 91
tonight 91
gdp 91
economists 91
pation 91
post 91
institution 91
band 91
six@@ 91
existing 91
teams 91
tar 91
stion 91
fortunate 91
afternoon 91
ror 91
circumstances 91
enced 91
stronger 91
oting 91
psy@@ 91
algorithms 91
vaccine 91
increased 90
gg@@ 90
bicy@@ 90
shake 90
globe 90
conserva@@ 90
perform 90
angel@@ 90
water@@ 90
attempt 90
mix@@ 90
opti@@ 90
rich@@ 90
defense 90
touched 90
survey 90
aming 90
sev@@ 90
eria 90
drives 90
cents 90
paralle@@ 90
abstract 90
tac@@ 90
pollen 90
eg@@ 90
port@@ 90
ami 90
fake 90
seven@@ 90
outcome 90
architects 90
renew@@ 90
ever@@ 90
reg@@ 90
ku@@ 90
comman@@ 90
lywood 90
bow 90
mism 90
feeding 89
ctly 89
flexi@@ 89
split 89
ose 89
partners 89
rapidly 89
curve 89
incenti@@ 89
pression 89
sons 89
gentlemen 89
remind 89
ied 89
detect 89
thin 89
boston 89
funding 89
expand 89
paradigm 89
arab@@ 89
astero@@ 89
decre@@ 89
expert 89
lun@@ 89
signs 89
fe 89
creature 89
rocket 89
origin@@ 89
compas@@ 89
swimming 89
finance 89
pa 89
golden 89
behavioral 89
decline 89
ware 89
technique 89
pakistan 89
five-@@ 89
court 89
dam@@ 89
tube 89
pocket 88
restri@@ 88
launch 88
enture 88
21 88
physically 88
combined 88
exact 88
ado@@ 88
dia@@ 88
parking 88
nat@@ 88
bert 88
ous@@ 88
boxes 88
volume 88
literature 88
perman@@ 88
clouds 88
insur@@ 88
illustr@@ 88
2010 88
advice 88
measured 88
asse@@ 88
hall@@ 88
mad 88
cky 88
regul@@ 88
som@@ 88
defe@@ 88
stant 88
odd 88
exhibi@@ 88
bin 88
gover@@ 88
foc@@ 88
ram 87
proto@@ 87
remain 87
internal 87
fel@@ 87
mode@@ 87
sche@@ 87
discus@@ 87
determine 87
sweet 87
ener@@ 87
well-being 87
minate 87
features 87
corporate 87
authority 87
congress 87
election 87
constitu@@ 87
sation 87
scrat@@ 87
instruments 87
wondered 87
tee 87
sup@@ 87
skill 87
connecting 87
whist@@ 87
regions 87
sustainability 87
evening 87
metho@@ 87
printing 87
staff 87
poses 87
bage 87
ema@@ 87
bomb 87
acted 87
underwater 87
ural 87
philosophy 87
ull 87
rup@@ 86
lighting 86
engaged 86
ki 86
challenging 86
vis@@ 86
contra@@ 86
dary 86
phar@@ 86
mod@@ 86
applications 86
designs 86
ints 86
eness 86
onics 86
ug@@ 86
copy@@ 86
participate 86
dancing 86
keeps 86
inher@@ 86
dable 86
acces@@ 86
alle@@ 86
records 86
ple 86
chro@@ 86
mechanical 86
narrative 86
doubt 86
ility 86
options 86
option 86
younger 86
monkeys 86
john@@ 86
unclear 86
reference 86
threat@@ 86
polio 86
21st 86
chocol@@ 85
clip 85
tious 85
astoni@@ 85
subjects 85
establi@@ 85
climb 85
chicago 85
so-@@ 85
diabe@@ 85
embrace 85
help@@ 85
lap@@ 85
september 85
fed 85
horrible 85
sels 85
bike 85
ridicul@@ 85
mystery 85
flew 85
.com 85
ult 85
epi@@ 85
queen 85
refu@@ 85
fuels 85
figures 85
deaths 85
esthe@@ 85
haiti 85
length 85
selection 85
reverse 85
fingers 85
songs 85
german 85
transformed 85
largely 85
success@@ 85
me-@@ 85
16@@ 85
sahar@@ 85
sey 85
worlds 85
islands 85
eding 85
poem 85
enable 85
muslim 85
tea 85
accu@@ 84
sty@@ 84
causing 84
ctor 84
atten@@ 84
fortun@@ 84
channel 84
yl@@ 84
latest 84
cke@@ 84
stands 84
inspiring 84
expec@@ 84
admit 84
boring 84
ounding 84
raw 84
generated 84
nes@@ 84
messages 84
upper 84
hydro@@ 84
vor 84
gent 84
classic 84
budd@@ 84
unknown 84
aci@@ 84
unexpected 84
atom@@ 84
concrete 84
bacter@@ 84
obsessed 84
nose 84
mean@@ 84
simplicity 84
entertainment 84
excell@@ 84
12@@ 84
dense 84
ee@@ 84
expon@@ 84
ternal 84
remains 84
symptom@@ 84
gray 84
answer@@ 84
nest 84
mid-@@ 84
housing 84
villages 84
component 84
zero-@@ 84
connec@@ 84
genom@@ 84
orities 84
ogen@@ 84
busy 83
navi@@ 83
surpri@@ 83
recyc@@ 83
bron@@ 83
yi@@ 83
60s 83
common@@ 83
gration 83
ya 83
susp@@ 83
xes 83
70s 83
disgu@@ 83
clothes 83
jour@@ 83
lish 83
egypt 83
films 83
kar@@ 83
ax@@ 83
directions 83
surve@@ 83
soul 83
come@@ 83
wireless 83
invent@@ 83
weigh@@ 83
relate 83
concepts 83
nit@@ 83
bal 83
victims 83
cyber@@ 83
conveni@@ 83
spin@@ 83
swa@@ 83
obama 83
cines 83
pen 83
somewhat 83
desper@@ 82
bles 82
scra@@ 82
rhyth@@ 82
loy@@ 82
explained 82
centuries 82
miser@@ 82
title 82
lung 82
deman@@ 82
year-@@ 82
ority 82
pound 82
clar@@ 82
rw@@ 82
eld 82
neither 82
zy 82
parti@@ 82
bucks 82
ond 82
faced 82
19th 82
mind@@ 82
celebrate 82
rice 82
phase 82
scan 82
archi@@ 82
achi@@ 82
released 82
extra@@ 82
potentially 82
danger 82
imple@@ 82
2005 82
collected 82
earthqua@@ 82
itarian 82
wl 82
anding 82
conservation 82
tered 82
functions 82
fire@@ 82
jel@@ 82
graphics 82
powers 82
frankly 82
africans 82
prices 82
sculpture 82
frigh@@ 81
dolphins 81
oms 81
actors 81
conversations 81
wheel 81
loyed 81
moun@@ 81
hood 81
phrase 81
ast@@ 81
paris 81
constant 81
tops 81
rememb@@ 81
civi@@ 81
lers 81
distributed 81
bad@@ 81
symmetry 81
sage 81
geous 81
neutr@@ 81
telescope 81
rors 81
dings 81
recording 81
multi-@@ 81
you@@ 81
mb 81
greenhouse 81
authenti@@ 81
identical 81
chip 81
terrori@@ 81
jury 81
icide 81
bol@@ 80
lovely 80
resistance 80
cook 80
predict@@ 80
solid 80
rising 80
shut 80
charity 80
gates 80
great@@ 80
gender 80
phili@@ 80
processing 80
vehicles 80
g-@@ 80
trend 80
obesity 80
compla@@ 80
sue 80
loop 80
controver@@ 80
root 80
divided 80
rist 80
mo 80
mosqu@@ 80
lake 80
statement 80
occur 80
grows 80
implications 80
zi@@ 80
flower 80
depend 80
careful 80
surely 80
paintings 80
input 80
swi@@ 80
repu@@ 80
sities 80
embed@@ 80
iphone 80
papers 80
bers 80
now@@ 80
shoulder 80
proof 80
chapter 80
fat@@ 79
persu@@ 79
oes 79
ulous 79
woo@@ 79
lest 79
commitment 79
instin@@ 79
intuitive 79
handle 79
consumers 79
clever 79
equation 79
iop@@ 79
techn@@ 79
co-@@ 79
dead@@ 79
feder@@ 79
fascin@@ 79
voca@@ 79
trig@@ 79
scrip@@ 79
rations 79
struck 79
exploring 79
kic@@ 79
extin@@ 79
organism 79
kingdom 79
prepar@@ 79
4,000 79
disorder 79
nel 79
alian 79
four-@@ 79
gps 79
tian 79
crea@@ 79
stayed 79
glu@@ 79
calcu@@ 79
classes 79
any@@ 79
tician 79
density 79
russia 79
france 79
clinic 79
required 79
reser@@ 79
ji@@ 79
introduc@@ 79
list@@ 79
lion 79
infinite 79
spider 79
aud@@ 79
score 79
tat@@ 79
synthetic 79
pile 78
arctic 78
immune 78
rhe@@ 78
tall 78
allo@@ 78
sticks 78
automatically 78
genius 78
psych@@ 78
hope@@ 78
measuring 78
agency 78
acked 78
ight 78
existed 78
moder@@ 78
rement 78
quarter 78
economist 78
mess 78
scared 78
dynamics 78
frac@@ 78
ims 78
partic@@ 78
joined 78
sel 78
extinct 78
interview 78
bell 78
interactive 78
till 78
ast 78
brow@@ 78
gile 78
circuit 78
inations 78
cket 78
pho@@ 78
furniture 78
underst@@ 78
peac@@ 78
mm 78
cup 78
bust 78
chose 78
frien@@ 78
certainty 78
puzzle 78
romantic 78
disorders 78
compos@@ 78
dh 78
allowing 78
fam@@ 77
dire@@ 77
vulner@@ 77
tionary 77
ich 77
olution 77
hosp@@ 77
dee@@ 76
partment 76
ough 76
mir@@ 76
puzz@@ 76
ise 76
collap@@ 75
follo@@ 75
proper@@ 75
arian 75
anim@@ 75
neur@@ 75
cei@@ 75
logi@@ 75
centi@@ 75
turing 75
interest@@ 74
indepen@@ 74
ater 74
velo@@ 74
dem@@ 74
whi@@ 74
stron@@ 74
symme@@ 74
musli@@ 74
usual 73
algorith@@ 73
promi@@ 73
of@@ 73
cer 73
glo@@ 73
tel@@ 73
ffici@@ 73
demon@@ 73
was@@ 73
citiz@@ 72
ices 72
eling 72
sculp@@ 72
democr@@ 72
remar@@ 72
stly 72
carb@@ 72
spee@@ 72
fall@@ 72
tis@@ 72
oxy@@ 72
institu@@ 71
ures 71
mbers 71
long-@@ 71
ide 71
viol@@ 71
run@@ 71
fur@@ 71
effor@@ 70
ght 70
ition 70
stitu@@ 70
addre@@ 70
dama@@ 70
sent@@ 70
wer@@ 70
sity 70
attemp@@ 70
civiliz@@ 70
bed@@ 70
pati@@ 70
like@@ 69
isra@@ 69
eve 69
eping 69
lev@@ 69
od 69
transi@@ 69
got@@ 69
mou@@ 69
innova@@ 69
architec@@ 69
mption 68
inde@@ 68
bud@@ 68
cle@@ 68
zer@@ 68
agri@@ 68
dimen@@ 68
diff@@ 68
priv@@ 68
stat@@ 68
ppe@@ 67
aspe@@ 67
tage 67
nia 67
distri@@ 67
partici@@ 67
dimensional 67
timate 66
fortunately 66
develo@@ 66
stors 66
sic 66
bli@@ 66
compan@@ 66
gni@@ 66
pret@@ 66
mary 66
fic 66
expla@@ 66
confi@@ 66
intu@@ 65
tain@@ 65
expen@@ 65
dou@@ 65
ordin@@ 65
ima@@ 65
heal@@ 65
nucle@@ 65
anima@@ 65
ques@@ 65
neighb@@ 64
weal@@ 64
class@@ 64
isms 64
educa@@ 64
cele@@ 64
dinosa@@ 64
colleag@@ 64
pollu@@ 63
trou@@ 63
equi@@ 63
health@@ 63
laun@@ 63
youn@@ 63
use@@ 63
daugh@@ 63
vy 63
lear@@ 63
research@@ 63
arly 63
gir@@ 62
danger@@ 62
lig@@ 62
mach@@ 62
titu@@ 62
consci@@ 62
ul 62
gent@@ 62
dol@@ 62
obe@@ 62
arra@@ 62
process@@ 62
extre@@ 62
plat@@ 61
ance@@ 61
native 61
adver@@ 61
simpli@@ 61
lions 61
thou@@ 61
entally 60
chic@@ 60
lities 60
gle 60
accur@@ 60
pon 60
beg@@ 60
conven@@ 60
state@@ 60
may@@ 60
concep@@ 60
kable 60
dolph@@ 59
safe@@ 59
immedi@@ 59
mun@@ 59
sic@@ 59
ara@@ 59
quot@@ 59
mote 59
mous 59
s. 59
neighbor@@ 59
presi@@ 58
qua@@ 58
physi@@ 58
surge@@ 58
obse@@ 58
mely 58
ury 58
let@@ 58
midd@@ 58
tioned 57
chri@@ 57
pper 57
egy@@ 57
sionate 57
deta@@ 57
develop@@ 57
regu@@ 57
condi@@ 56
ished 56
diffic@@ 56
kee@@ 56
dation 56
desi@@ 56
justi@@ 56
magne@@ 56
chemi@@ 56
dia 55
favor@@ 55
stom@@ 55
ety 55
differ@@ 55
infin@@ 55
nam@@ 55
abi@@ 55
restaur@@ 55
q 55
é@@ 55
exper@@ 54
benef@@ 54
engine@@ 54
temper@@ 54
poe@@ 54
batter@@ 54
bble 54
hus@@ 54
org@@ 54
stances 53
experi@@ 53
dom 53
distribu@@ 53
gely 53
therap@@ 53
rying 53
nific@@ 53
metaph@@ 53
sually 53
with@@ 53
ests 53
asy 53
centr@@ 53
ste 53
cess 53
cell@@ 52
vements 52
pid 52
tum 52
desp@@ 52
chil@@ 52
formation 52
ticians 52
fair@@ 52
simp@@ 52
corru@@ 52
dec@@ 52
individu@@ 51
rele@@ 51
teach@@ 51
tempor@@ 51
yel@@ 51
narra@@ 51
gentle@@ 51
nig@@ 51
horri@@ 51
newsp@@ 51
ference 51
clear@@ 51
challeng@@ 50
sibility 50
care@@ 50
spl@@ 50
arc@@ 50
timat@@ 50
worl@@ 50
roman@@ 50
pengu@@ 50
valu@@ 49
ject 49
occur@@ 49
sour@@ 49
vity 49
abo@@ 48
peop@@ 48
presents 48
kit@@ 48
dow@@ 48
len 48
campa@@ 47
ffe@@ 47
inning 47
ann@@ 47
exhi@@ 47
ind 47
vel 47
prac@@ 47
sof@@ 47
evi@@ 47
meta@@ 47
sop@@ 47
ual 47
avo@@ 46
knowle@@ 46
environ@@ 46
soli@@ 46
camer@@ 45
sional 45
cans 45
previ@@ 45
neu@@ 45
transpor@@ 45
invest@@ 45
soldi@@ 45
pical 44
grow@@ 44
yor@@ 44
libr@@ 44
vice 44
itary 44
sensi@@ 44
earli@@ 44
exi@@ 44
fant@@ 44
euro@@ 44
bile 44
austr@@ 44
them@@ 43
tiz@@ 43
sever@@ 43
philosoph@@ 43
techno@@ 43
pedia 43
sal 43
victi@@ 43
figh@@ 43
missions 43
geor@@ 43
graphi@@ 43
é 42
proble@@ 42
ope 42
urs 42
fashi@@ 42
selves 42
emo@@ 42
surger@@ 42
cogni@@ 41
espe@@ 41
reas@@ 41
fossi@@ 41
won@@ 41
osa@@ 41
shoul@@ 41
kly 41
defen@@ 40
olved 40
congre@@ 40
chur@@ 40
atures 40
oce@@ 40
cess@@ 40
oni@@ 40
beauti@@ 40
four@@ 40
phy@@ 40
keys 40
prev@@ 40
world@@ 40
opini@@ 40
wonder@@ 39
labor@@ 39
itely 39
bir@@ 39
chap@@ 39
perfe@@ 39
lli@@ 39
infra@@ 39
geni@@ 39
enor@@ 39
year@@ 39
intro@@ 39
ve-@@ 38
alia 38
materi@@ 38
liar 38
+ 38
pathy 38
princi@@ 38
sics 38
deter@@ 38
com 38
ularly 38
press@@ 38
explor@@ 38
satellit@@ 38
yea@@ 38
epide@@ 37
volu@@ 37
inging 37
trav@@ 37
sequences 37
know@@ 37
ada 36
brit@@ 36
resear@@ 36
stery 36
recor@@ 36
scienti@@ 36
unity 36
abstr@@ 36
intui@@ 36
convin@@ 35
beha@@ 35
brilli@@ 35
vid 35
vul@@ 35
manu@@ 35
tory 35
stein 35
struction 35
contex@@ 35
wear@@ 35
cali@@ 35
low@@ 35
bic@@ 35
democra@@ 34
appropri@@ 34
quic@@ 34
ross 34
sug@@ 34
explan@@ 34
esti@@ 34
ssa@@ 34
commerci@@ 34
circum@@ 34
ston 34
asure 33
dynam@@ 33
deep@@ 33
fically 33
meas@@ 33
requi@@ 33
ama 32
resul@@ 32
estab@@ 32
deca@@ 32
adul@@ 32
seri@@ 32
envi@@ 32
entially 32
rat@@ 32
kilome@@ 31
impli@@ 31
dows 31
clou@@ 31
atmo@@ 31
technologi@@ 31
volun@@ 31
employ@@ 30
phot@@ 30
mea@@ 30
comfor@@ 30
effici@@ 30
easi@@ 30
intel@@ 30
through@@ 30
bilities 30
aria 30
tish 30
eting 30
lars 30
ris 29
gul@@ 29
braz@@ 29
oral 29
exist@@ 29
muse@@ 29
ousness 29
exerci@@ 29
electri@@ 29
issu@@ 29
hundre@@ 29
perspe@@ 29
magaz@@ 29
iness 28
notic@@ 28
child@@ 28
big@@ 28
stan 28
tality 28
rough@@ 28
ctively 28
wom@@ 28
astic 28
wis@@ 27
elds 27
sically 27
cred@@ 27
efully 27
business@@ 27
thous@@ 27
nega@@ 27
paki@@ 27
iti 27
fas@@ 27
nex@@ 26
tot@@ 26
shou@@ 26
nas@@ 26
ign 26
sual 26
olutionary 26
valent 26
scul@@ 26
ira@@ 25
effe@@ 25
colle@@ 25
villa@@ 25
capac@@ 25
21@@ 25
afri@@ 25
reme@@ 25
ques 25
king@@ 25
anci@@ 24
aca@@ 24
conser@@ 24
immun@@ 24
automa@@ 24
spec@@ 24
ington 24
hospit@@ 24
accor@@ 24
dden 23
performan@@ 23
socie@@ 23
tremend@@ 23
marri@@ 23
á@@ 23
rought 23
other@@ 23
grou@@ 23
vide@@ 23
swim@@ 23
unex@@ 23
intellec@@ 23
dp 23
tech@@ 22
awar@@ 22
meaning@@ 22
vail@@ 22
relev@@ 22
scape 22
cially 22
earth@@ 22
ggle 21
instru@@ 21
natur@@ 21
fami@@ 21
employe@@ 21
patter@@ 21
where@@ 21
mista@@ 21
muc@@ 21
financi@@ 21
dise@@ 21
avail@@ 21
k. 21
stern 21
een 21
hou@@ 21
nuc@@ 21
ules 20
maj@@ 20
consum@@ 20
corpor@@ 20
unti@@ 20
ood 20
twit@@ 20
oppos@@ 20
europe@@ 20
prou@@ 20
rene@@ 19
tee@@ 19
weir@@ 19
artif@@ 19
gaz@@ 19
pie@@ 19
birth@@ 18
hic@@ 18
cyc@@ 18
fundam@@ 18
symp@@ 18
phra@@ 18
wiki@@ 18
wash@@ 18
even@@ 18
sophi@@ 18
solu@@ 17
alg@@ 17
ength 17
timately 17
paradig@@ 17
) 17
poun@@ 17
resour@@ 17
weapon@@ 17
tol@@ 17
face@@ 17
rhy@@ 16
paint@@ 16
tivi@@ 16
norm@@ 16
ridi@@ 16
cule 16
situ@@ 16
sophisti@@ 16
phen@@ 16
ameri@@ 16
000 16
feed@@ 16
ead 16
disor@@ 16
chen 16
tely 15
messa@@ 15
organ@@ 15
fren@@ 15
acher 15
rapi@@ 15
ecu@@ 15
% 15
intellig@@ 15
enly 15
wire@@ 15
mana@@ 15
lightly 15
joh@@ 15
call@@ 15
ould 15
pover@@ 14
studi@@ 14
ano 14
@ 14
ö@@ 14
sustain@@ 14
stero@@ 14
… 14
sat@@ 14
– 14
indu@@ 14
í@@ 13
necess@@ 13
# 13
cine 13
tainment 13
exac@@ 13
crete 13
thes 12
ership 12
tril@@ 12
desig@@ 12
sco 12
chemic@@ 12
ó@@ 12
coffe@@ 12
dn 12
erci@@ 12
ree 12
mexic@@ 11
religi@@ 11
= 11
nerv@@ 11
bef@@ 11
afgh@@ 10
mole@@ 10
è@@ 10
frame@@ 10
clas@@ 10
noon 10
augh@@ 10
paci@@ 10
americ@@ 10
tex 10
lease 10
lead@@ 9
stud@@ 9
duce 9
jects 9
figu@@ 9
cept 9
( 9
centu@@ 9
nei@@ 9
uro@@ 9
ü@@ 9
hous@@ 9
ild 9
meth@@ 9
hind 8
your@@ 8
behavi@@ 8
feel@@ 8
slow@@ 8
ught 8
ä@@ 8
conversa@@ 8
aly@@ 8
aga@@ 8
bots 8
ouse 8
certain@@ 8
inese 8
vices 7
_ 7
thom@@ 7
secur@@ 7
percen@@ 7
raid 7
staf@@ 7
^ 7
pment 7
tice 7
eric@@ 7
ester@@ 6
unexpe@@ 6
langu@@ 6
beau@@ 6
ã@@ 6
micha@@ 6
has@@ 6
degre@@ 6
cisco 6
n. 6
ê@@ 5
disci@@ 5
í 5
omen@@ 5
minu@@ 5
ç@@ 5
pically 5
mple 5
techni@@ 5
cently 5
califor@@ 5
him@@ 5
stantly 5
vehic@@ 5
อ@@ 5
protot@@ 4
ein@@ 4
complex@@ 4
aper 4
ñ@@ 4
goti@@ 4
toge@@ 4
happen@@ 4
liqu@@ 4
every@@ 4
enge 4
sep@@ 4
* 4
â 4
 4
 4
yester@@ 4
quan@@ 4
opport@@ 4
econ@@ 3
incredi@@ 3
spiring 3
relation@@ 3
² 3
indivi@@ 3
ø@@ 3
entre@@ 3
ā@@ 3
absolu@@ 3
rote 3
à 3
possi@@ 3
£ 3
..@@ 3
lecules 3
tware 3
betw@@ 3
eful@@ 3
celer@@ 3
ร 3
่ 3
harv@@ 3
ë@@ 2
japan@@ 2
ô@@ 2
philo@@ 2
â@@ 2
ï@@ 2
obvi@@ 2
chimp@@ 2
è 2
amoun@@ 2
does@@ 2
ú@@ 2
furnit@@ 2
€ 2
送@@ 2
你@@ 2
葱 2
unities 2
mathe@@ 2
compon@@ 2
ă@@ 2
ť 2
ē 2
ย@@ 2
ย 2
mend@@ 2
jap@@ 2
archite@@ 2
\ 2
chall@@ 2
trum 2
ć 2
_@@ 1
ē@@ 1
@@ 1
ï 1
ô 1
葱@@ 1
!@@ 1
à@@ 1
/@@ 1
á 1
@@ 1
&@@ 1
ø 1
你 1
…@@ 1
\@@ 1
+@@ 1
^@@ 1
่@@ 1
;@@ 1
#@@ 1
ã 1
ñ 1
ó 1
£@@ 1
€@@ 1
ร@@ 1
ć@@ 1
²@@ 1
ç 1
ë 1
อ 1
ä 1
)@@ 1
:@@ 1
*@@ 1
& 1
?@@ 1
—@@ 1
=@@ 1
ă 1
@@@ 1
ť@@ 1
ö 1
送 1
ā 1
(@@ 1
%@@ 1
ü 1
ê 1
$@@ 1
ú 1
–@@ 1
